{
  "version": "1.0",
  "truncation": null,
  "padding": null,
  "added_tokens": [
    {
      "id": 0,
      "content": "<PAD>",
      "single_word": false,
      "lstrip": false,
      "rstrip": false,
      "normalized": false,
      "special": true
    },
    {
      "id": 1,
      "content": "<UNK>",
      "single_word": false,
      "lstrip": false,
      "rstrip": false,
      "normalized": false,
      "special": true
    },
    {
      "id": 2,
      "content": "<BOS>",
      "single_word": false,
      "lstrip": false,
      "rstrip": false,
      "normalized": false,
      "special": true
    },
    {
      "id": 3,
      "content": "<EOS>",
      "single_word": false,
      "lstrip": false,
      "rstrip": false,
      "normalized": false,
      "special": true
    }
  ],
  "normalizer": null,
  "pre_tokenizer": {
    "type": "Whitespace"
  },
  "post_processor": null,
  "decoder": null,
  "model": {
    "type": "BPE",
    "dropout": null,
    "unk_token": "<UNK>",
    "continuing_subword_prefix": null,
    "end_of_word_suffix": null,
    "fuse_unk": false,
    "byte_fallback": false,
    "ignore_merges": false,
    "vocab": {
      "<PAD>": 0,
      "<UNK>": 1,
      "<BOS>": 2,
      "<EOS>": 3,
      "!": 4,
      "\"": 5,
      "#": 6,
      "$": 7,
      "%": 8,
      "&": 9,
      "'": 10,
      "(": 11,
      ")": 12,
      "*": 13,
      "+": 14,
      ",": 15,
      "-": 16,
      ".": 17,
      "/": 18,
      "0": 19,
      "1": 20,
      "2": 21,
      "3": 22,
      "4": 23,
      "5": 24,
      "6": 25,
      "7": 26,
      "8": 27,
      "9": 28,
      ":": 29,
      ";": 30,
      "<": 31,
      "=": 32,
      ">": 33,
      "?": 34,
      "@": 35,
      "A": 36,
      "B": 37,
      "C": 38,
      "D": 39,
      "E": 40,
      "F": 41,
      "G": 42,
      "H": 43,
      "I": 44,
      "J": 45,
      "K": 46,
      "L": 47,
      "M": 48,
      "N": 49,
      "O": 50,
      "P": 51,
      "Q": 52,
      "R": 53,
      "S": 54,
      "T": 55,
      "U": 56,
      "V": 57,
      "W": 58,
      "X": 59,
      "Y": 60,
      "Z": 61,
      "[": 62,
      "\\": 63,
      "]": 64,
      "^": 65,
      "_": 66,
      "a": 67,
      "b": 68,
      "c": 69,
      "d": 70,
      "e": 71,
      "f": 72,
      "g": 73,
      "h": 74,
      "i": 75,
      "j": 76,
      "k": 77,
      "l": 78,
      "m": 79,
      "n": 80,
      "o": 81,
      "p": 82,
      "q": 83,
      "r": 84,
      "s": 85,
      "t": 86,
      "u": 87,
      "v": 88,
      "w": 89,
      "x": 90,
      "y": 91,
      "z": 92,
      "{": 93,
      "|": 94,
      "}": 95,
      "~": 96,
      "£": 97,
      "¥": 98,
      "«": 99,
      "­": 100,
      "°": 101,
      "»": 102,
      "Î": 103,
      "à": 104,
      "ï": 105,
      "ü": 106,
      "ÿ": 107,
      "Ÿ": 108,
      "–": 109,
      "—": 110,
      "‘": 111,
      "’": 112,
      "“": 113,
      "”": 114,
      "•": 115,
      "■": 116,
      "♦": 117,
      "ﬁ": 118,
      "ﬂ": 119,
      "th": 120,
      "..": 121,
      "in": 122,
      "re": 123,
      "the": 124,
      "on": 125,
      "an": 126,
      "at": 127,
      "or": 128,
      "en": 129,
      "er": 130,
      "....": 131,
      "is": 132,
      "al": 133,
      "ed": 134,
      "ion": 135,
      "of": 136,
      "ce": 137,
      "ing": 138,
      "to": 139,
      "ct": 140,
      "it": 141,
      "st": 142,
      "ic": 143,
      "ar": 144,
      "de": 145,
      "as": 146,
      "and": 147,
      "se": 148,
      "........": 149,
      "ve": 150,
      "ou": 151,
      "le": 152,
      "be": 153,
      "ent": 154,
      "ro": 155,
      "for": 156,
      "im": 157,
      "ch": 158,
      "ation": 159,
      "ure": 160,
      "con": 161,
      "ly": 162,
      "co": 163,
      "es": 164,
      "Th": 165,
      "mo": 166,
      "wh": 167,
      "ra": 168,
      "su": 169,
      "wor": 170,
      "sp": 171,
      "str": 172,
      "ter": 173,
      "me": 174,
      "form": 175,
      "ma": 176,
      "ex": 177,
      "mp": 178,
      "pro": 179,
      "ow": 180,
      "ich": 181,
      "which": 182,
      "ig": 183,
      "il": 184,
      "pt": 185,
      "................": 186,
      "ive": 187,
      "The": 188,
      "ver": 189,
      "sent": 190,
      "this": 191,
      "that": 192,
      "ace": 193,
      "ld": 194,
      "sion": 195,
      "cept": 196,
      "all": 197,
      "ag": 198,
      "by": 199,
      "no": 200,
      "uct": 201,
      "are": 202,
      "so": 203,
      "qu": 204,
      "us": 205,
      "ab": 206,
      "RE": 207,
      "ence": 208,
      "ad": 209,
      "ur": 210,
      "po": 211,
      "fe": 212,
      "word": 213,
      "un": 214,
      "di": 215,
      "pre": 216,
      "gra": 217,
      "ith": 218,
      "ul": 219,
      "ension": 220,
      "ran": 221,
      "ity": 222,
      "ate": 223,
      "may": 224,
      "par": 225,
      "concept": 226,
      "sy": 227,
      "ut": 228,
      "ould": 229,
      "In": 230,
      "ss": 231,
      "ucture": 232,
      "ual": 233,
      "del": 234,
      "ci": 235,
      "imension": 236,
      "em": 237,
      "per": 238,
      "ect": 239,
      "comp": 240,
      "with": 241,
      "fin": 242,
      "model": 243,
      "dimension": 244,
      "space": 245,
      "age": 246,
      "rans": 247,
      "ri": 248,
      "ated": 249,
      "CT": 250,
      "ha": 251,
      "ist": 252,
      "ctor": 253,
      "te": 254,
      "OD": 255,
      "der": 256,
      "mb": 257,
      "structure": 258,
      "ta": 259,
      "mean": 260,
      "ne": 261,
      "we": 262,
      "ature": 263,
      "vector": 264,
      "gu": 265,
      "ition": 266,
      "formation": 267,
      "sentence": 268,
      "ph": 269,
      "red": 270,
      "sing": 271,
      "lo": 272,
      "man": 273,
      "EN": 274,
      "meaning": 275,
      "ment": 276,
      "pl": 277,
      "gram": 278,
      "trans": 279,
      "not": 280,
      "RA": 281,
      "use": 282,
      "would": 283,
      "lan": 284,
      "ree": 285,
      "rom": 286,
      "defin": 287,
      "ti": 288,
      ",,": 289,
      "from": 290,
      "ject": 291,
      "ction": 292,
      "ir": 293,
      "oun": 294,
      "sub": 295,
      "LE": 296,
      "ac": 297,
      "ach": 298,
      "vi": 299,
      "stem": 300,
      "feature": 301,
      "ON": 302,
      "ol": 303,
      "present": 304,
      "langu": 305,
      "AT": 306,
      "bas": 307,
      "system": 308,
      "ill": 309,
      "19": 310,
      "ECT": 311,
      "cess": 312,
      "ap": 313,
      "ple": 314,
      "ren": 315,
      "ative": 316,
      "TH": 317,
      "min": 318,
      "ther": 319,
      "OB": 320,
      "int": 321,
      "words": 322,
      "-,": 323,
      "JECT": 324,
      "language": 325,
      "ear": 326,
      "was": 327,
      "dimensional": 328,
      "OBJECT": 329,
      "ES": 330,
      "its": 331,
      "RC": 332,
      "cur": 333,
      "iz": 334,
      "tic": 335,
      "BO": 336,
      "sh": 337,
      "ER": 338,
      "MOD": 339,
      "lin": 340,
      "mat": 341,
      "arch": 342,
      "have": 343,
      "ob": 344,
      "ser": 345,
      "these": 346,
      "program": 347,
      "igure": 348,
      "used": 349,
      "IT": 350,
      "cor": 351,
      "dis": 352,
      "dif": 353,
      "PA": 354,
      "ous": 355,
      "cont": 356,
      "This": 357,
      "allow": 358,
      "GRA": 359,
      "end": 360,
      "ical": 361,
      "our": 362,
      "igh": 363,
      "each": 364,
      "chan": 365,
      "AL": 366,
      "CI": 367,
      "tim": 368,
      "com": 369,
      "spe": 370,
      "under": 371,
      "Figure": 372,
      "ION": 373,
      "has": 374,
      "mul": 375,
      "into": 376,
      "represent": 377,
      "out": 378,
      "work": 379,
      "able": 380,
      "ENGRA": 381,
      "RCLE": 382,
      "CIRCLE": 383,
      "ENGRAF": 384,
      "sc": 385,
      "ue": 386,
      "stand": 387,
      "add": 388,
      "conceptual": 389,
      "multi": 390,
      "he": 391,
      "uter": 392,
      "tain": 393,
      "197": 394,
      "BOX": 395,
      "act": 396,
      "time": 397,
      "IF": 398,
      "ge": 399,
      "vis": 400,
      "ince": 401,
      "information": 402,
      "rect": 403,
      "their": 404,
      "verb": 405,
      "rent": 406,
      "gon": 407,
      "ved": 408,
      "will": 409,
      "................................": 410,
      "qui": 411,
      "THE": 412,
      "object": 413,
      "LO": 414,
      "hi": 415,
      "pe": 416,
      "ty": 417,
      "ish": 418,
      "dep": 419,
      "ext": 420,
      "ca": 421,
      "cl": 422,
      "tree": 423,
      "ener": 424,
      "ication": 425,
      "termin": 426,
      "point": 427,
      "parsing": 428,
      "MODIF": 429,
      "ied": 430,
      "ni": 431,
      "sim": 432,
      "then": 433,
      "ism": 434,
      "been": 435,
      "process": 436,
      "AN": 437,
      "gh": 438,
      "requi": 439,
      "also": 440,
      "ary": 441,
      "asso": 442,
      "ough": 443,
      "string": 444,
      "mber": 445,
      "understand": 446,
      "St": 447,
      "amp": 448,
      "gener": 449,
      "ll": 450,
      "lish": 451,
      "one": 452,
      "associ": 453,
      "ample": 454,
      "ble": 455,
      "ev": 456,
      "oper": 457,
      "put": 458,
      "uc": 459,
      "...": 460,
      "reg": 461,
      "ally": 462,
      "node": 463,
      "graph": 464,
      "OBJECTS": 465,
      "comm": 466,
      "ep": 467,
      "ever": 468,
      "ke": 469,
      "noun": 470,
      "other": 471,
      "tion": 472,
      "up": 473,
      "ics": 474,
      "own": 475,
      "dimensions": 476,
      "vectors": 477,
      "sentences": 478,
      "features": 479,
      "depend": 480,
      "SI": 481,
      "SS": 482,
      "call": 483,
      "dat": 484,
      "nu": 485,
      "set": 486,
      "lygon": 487,
      "more": 488,
      "such": 489,
      "ural": 490,
      "transformation": 491,
      "defined": 492,
      "ight": 493,
      "KE": 494,
      "We": 495,
      "rel": 496,
      "only": 497,
      "ates": 498,
      "ister": 499,
      "ase": 500,
      "modif": 501,
      "ility": 502,
      "structures": 503,
      "data": 504,
      "10": 505,
      "Con": 506,
      "bo": 507,
      "if": 508,
      "ms": 509,
      "seman": 510,
      "cause": 511,
      "MODIFY": 512,
      "number": 513,
      "semantic": 514,
      ").": 515,
      "ACT": 516,
      "DE": 517,
      "IS": 518,
      "face": 519,
      "gi": 520,
      "low": 521,
      "input": 522,
      "itive": 523,
      "contain": 524,
      "exist": 525,
      "que": 526,
      "current": 527,
      "linear": 528,
      "OF": 529,
      "ay": 530,
      "do": 531,
      "fic": 532,
      "id": 533,
      "mar": 534,
      "tation": 535,
      "twork": 536,
      "inter": 537,
      "ions": 538,
      "ass": 539,
      "ess": 540,
      "ODE": 541,
      "matri": 542,
      "PASS": 543,
      "speci": 544,
      "visual": 545,
      "register": 546,
      "LU": 547,
      "Re": 548,
      "could": 549,
      "ial": 550,
      "ted": 551,
      "sur": 552,
      "igu": 553,
      "using": 554,
      "part": 555,
      "parser": 556,
      "computer": 557,
      "mbigu": 558,
      "11": 559,
      "En": 560,
      "RO": 561,
      "TO": 562,
      "how": 563,
      "ies": 564,
      "ner": 565,
      "por": 566,
      "sa": 567,
      "ind": 568,
      "search": 569,
      "world": 570,
      "pos": 571,
      "log": 572,
      ",,,,": 573,
      "understanding": 574,
      "),": 575,
      "**": 576,
      "Co": 577,
      "cle": 578,
      "ible": 579,
      "pr": 580,
      "sto": 581,
      "col": 582,
      "example": 583,
      "polygon": 584,
      "ound": 585,
      "correct": 586,
      "conceptualiz": 587,
      "require": 588,
      "dependent": 589,
      "specif": 590,
      "surface": 591,
      "Par": 592,
      "TE": 593,
      "ast": 594,
      "ew": 595,
      "gn": 596,
      "ts": 597,
      "ant": 598,
      "ces": 599,
      "loc": 600,
      "meanings": 601,
      "objects": 602,
      "Eng": 603,
      "-.": 604,
      ".\"": 605,
      "16": 606,
      "99": 607,
      "GH": 608,
      "OK": 609,
      "fra": 610,
      "tw": 611,
      "ven": 612,
      "ong": 613,
      "atural": 614,
      "ard": 615,
      "deep": 616,
      "ses": 617,
      "ational": 618,
      "formal": 619,
      "ability": 620,
      "perform": 621,
      "addition": 622,
      "upon": 623,
      "De": 624,
      "Since": 625,
      "action": 626,
      "ec": 627,
      "ffe": 628,
      "ful": 629,
      "ict": 630,
      "ten": 631,
      "val": 632,
      "resp": 633,
      "ari": 634,
      "desc": 635,
      "ations": 636,
      "about": 637,
      "within": 638,
      "tech": 639,
      "network": 640,
      "grammar": 641,
      "ALL": 642,
      "English": 643,
      "IN": 644,
      "SL": 645,
      "Trans": 646,
      "ambigu": 647,
      "ded": 648,
      "ere": 649,
      "ech": 650,
      "ip": 651,
      "ken": 652,
      "list": 653,
      "nta": 654,
      "natural": 655,
      "ructure": 656,
      "since": 657,
      "they": 658,
      "ord": 659,
      "ers": 660,
      "ite": 661,
      "imple": 662,
      "comple": 663,
      "manner": 664,
      "base": 665,
      "appro": 666,
      "Structure": 667,
      "graphics": 668,
      "KEY": 669,
      "Concept": 670,
      "ACTION": 671,
      "stored": 672,
      "two": 673,
      "12": 674,
      "Ar": 675,
      "BLU": 676,
      "CO": 677,
      "OR": 678,
      "but": 679,
      "cre": 680,
      "can": 681,
      "et": 682,
      "ide": 683,
      "li": 684,
      "mu": 685,
      "sen": 686,
      "ys": 687,
      "resu": 688,
      "vel": 689,
      "level": 690,
      "struct": 691,
      "sol": 692,
      "cir": 693,
      "ack": 694,
      "based": 695,
      "typ": 696,
      "operat": 697,
      "however": 698,
      "Comp": 699,
      "icture": 700,
      "ARE": 701,
      "TALL": 702,
      "URE": 703,
      "bl": 704,
      "ding": 705,
      "duc": 706,
      "fir": 707,
      "ling": 708,
      "lar": 709,
      "med": 710,
      "nature": 711,
      "sive": 712,
      "tho": 713,
      "inver": 714,
      "real": 715,
      "any": 716,
      "ory": 717,
      "stions": 718,
      "icated": 719,
      "determin": 720,
      "Thus": 721,
      "ages": 722,
      "RED": 723,
      "synta": 724,
      "models": 725,
      "allows": 726,
      "multidimensional": 727,
      "AND": 728,
      "given": 729,
      "matrix": 730,
      "prim": 731,
      "respon": 732,
      "descri": 733,
      "techni": 734,
      "circle": 735,
      "AD": 736,
      "If": 737,
      "LN": 738,
      "SQ": 739,
      "Schan": 740,
      "fact": 741,
      "his": 742,
      "ove": 743,
      "ru": 744,
      "rough": 745,
      "sed": 746,
      "than": 747,
      "ctic": 748,
      "cho": 749,
      "suc": 750,
      "some": 751,
      "RELN": 752,
      "feren": 753,
      "hap": 754,
      "new": 755,
      "dimensionality": 756,
      "displ": 757,
      "context": 758,
      "terminal": 759,
      "formalism": 760,
      "ambiguity": 761,
      "implement": 762,
      "resul": 763,
      "operator": 764,
      "first": 765,
      "inverse": 766,
      "Schank": 767,
      "CE": 768,
      "IGH": 769,
      "MO": 770,
      "NO": 771,
      "fa": 772,
      "fol": 773,
      "gre": 774,
      "tall": 775,
      "uist": 776,
      "ving": 777,
      "three": 778,
      "though": 779,
      "ine": 780,
      "them": 781,
      "order": 782,
      "erarch": 783,
      "ality": 784,
      "itu": 785,
      "state": 786,
      "des": 787,
      "sequ": 788,
      "bet": 789,
      "where": 790,
      "mechan": 791,
      "vers": 792,
      "unction": 793,
      "modeled": 794,
      "transform": 795,
      "definition": 796,
      "vious": 797,
      "LOAD": 798,
      "associative": 799,
      "color": 800,
      "Parsing": 801,
      "ordin": 802,
      "BLUE": 803,
      "mechanism": 804,
      "+.": 805,
      "30": 806,
      "AC": 807,
      "An": 808,
      "As": 809,
      "Ex": 810,
      "Mo": 811,
      "SH": 812,
      "VE": 813,
      "Whi": 814,
      "found": 815,
      "king": 816,
      "long": 817,
      "mer": 818,
      "now": 819,
      "pri": 820,
      "ret": 821,
      "recur": 822,
      "icon": 823,
      "coordin": 824,
      "main": 825,
      "ilar": 826,
      "above": 827,
      "direct": 828,
      "previous": 829,
      "symb": 830,
      "pho": 831,
      "ATION": 832,
      "basis": 833,
      "shown": 834,
      "ERS": 835,
      "disc": 836,
      "contro": 837,
      "LOC": 838,
      "hierarch": 839,
      "associated": 840,
      "called": 841,
      "registers": 842,
      "frame": 843,
      "ffect": 844,
      "syntactic": 845,
      "IGHT": 846,
      "follow": 847,
      "While": 848,
      "symbol": 849,
      "AP": 850,
      "PT": 851,
      "UARE": 852,
      "au": 853,
      "function": 854,
      "ks": 855,
      "my": 856,
      "mon": 857,
      "mit": 858,
      "picture": 859,
      "ans": 860,
      "row": 861,
      "cons": 862,
      "cogn": 863,
      "most": 864,
      "when": 865,
      "adj": 866,
      "urn": 867,
      "ular": 868,
      "eman": 869,
      "necess": 870,
      "ween": 871,
      "ments": 872,
      "ctions": 873,
      "presented": 874,
      "ESS": 875,
      "ized": 876,
      "ship": 877,
      "representation": 878,
      "type": 879,
      "simple": 880,
      "similar": 881,
      "lished": 882,
      "command": 883,
      "IST": 884,
      "ROT": 885,
      "same": 886,
      "specified": 887,
      "must": 888,
      "types": 889,
      "Computer": 890,
      "blue": 891,
      "between": 892,
      "14": 893,
      "17": 894,
      "23": 895,
      "31": 896,
      "AS": 897,
      "FOR": 898,
      "GRE": 899,
      "It": 900,
      "ME": 901,
      "NP": 902,
      "SPA": 903,
      "VER": 904,
      "Win": 905,
      "__": 906,
      "ced": 907,
      "ho": 908,
      "hu": 909,
      "high": 910,
      "ie": 911,
      "mall": 912,
      "rit": 913,
      "small": 914,
      "vari": 915,
      "thus": 916,
      "init": 917,
      "inte": 918,
      "independent": 919,
      "restr": 920,
      "orm": 921,
      "ings": 922,
      "see": 923,
      "sel": 924,
      "............": 925,
      "image": 926,
      "impl": 927,
      "raw": 928,
      "strate": 929,
      "made": 930,
      "expre": 931,
      "These": 932,
      "qual": 933,
      "poss": 934,
      "ution": 935,
      "define": 936,
      "systems": 937,
      "app": 938,
      "ically": 939,
      "verbal": 940,
      "commun": 941,
      "relation": 942,
      "contained": 943,
      "questions": 944,
      "linearly": 945,
      "linguist": 946,
      "large": 947,
      "SQUARE": 948,
      "return": 949,
      "recursive": 950,
      ",\"": 951,
      "DRA": 952,
      "GO": 953,
      "Seman": 954,
      "Uni": 955,
      "cu": 956,
      "cy": 957,
      "cap": 958,
      "du": 959,
      "ef": 960,
      "eas": 961,
      "four": 962,
      "idi": 963,
      "know": 964,
      "led": 965,
      "mes": 966,
      "non": 967,
      "ness": 968,
      "om": 969,
      "ore": 970,
      "pa": 971,
      "ting": 972,
      "anal": 973,
      "ating": 974,
      "lef": 975,
      "roduc": 976,
      "tern": 977,
      "exp": 978,
      "provi": 979,
      "uction": 980,
      "ques": 981,
      "divi": 982,
      "ute": 983,
      "comput": 984,
      "nel": 985,
      "plic": 986,
      "illu": 987,
      "1974": 988,
      "clu": 989,
      "points": 990,
      "required": 991,
      "evo": 992,
      "causes": 993,
      "existing": 994,
      "logy": 995,
      "primitive": 996,
      "versity": 997,
      "SHAP": 998,
      "priate": 999,
      "photo": 1000,
      "control": 1001,
      "necessary": 1002,
      "possible": 1003,
      "DRAW": 1004,
      "Semantic": 1005,
      "University": 1006,
      "15": 1007,
      "18": 1008,
      "20": 1009,
      "21": 1010,
      "22": 1011,
      "27": 1012,
      "AKE": 1013,
      "BE": 1014,
      "CODE": 1015,
      "DI": 1016,
      "LS": 1017,
      "MAKE": 1018,
      "PP": 1019,
      "To": 1020,
      "TRA": 1021,
      "VAL": 1022,
      "XT": 1023,
      "[+": 1024,
      "].": 1025,
      "bit": 1026,
      "case": 1027,
      "dual": 1028,
      "go": 1029,
      "gree": 1030,
      "had": 1031,
      "ider": 1032,
      "og": 1033,
      "pow": 1034,
      "um": 1035,
      "vol": 1036,
      "indivi": 1037,
      "invol": 1038,
      "reas": 1039,
      "remo": 1040,
      "ance": 1041,
      "although": 1042,
      "ceed": 1043,
      "itative": 1044,
      "stra": 1045,
      "construct": 1046,
      "motion": 1047,
      "exec": 1048,
      "REN": 1049,
      "adv": 1050,
      "adject": 1051,
      "ected": 1052,
      "temp": 1053,
      "were": 1054,
      "single": 1055,
      "plication": 1056,
      "view": 1057,
      "allowed": 1058,
      "speech": 1059,
      "scal": 1060,
      "added": 1061,
      "THEM": 1062,
      "clar": 1063,
      "class": 1064,
      "evol": 1065,
      "modify": 1066,
      "polygons": 1067,
      "location": 1068,
      "grammars": 1069,
      "appropriate": 1070,
      "Conceptual": 1071,
      "ysis": 1072,
      "techniques": 1073,
      "success": 1074,
      "display": 1075,
      "discus": 1076,
      "mitted": 1077,
      "answ": 1078,
      "GREEN": 1079,
      "restri": 1080,
      "relationship": 1081,
      "left": 1082,
      "LSON": 1083,
      "VALU": 1084,
      "power": 1085,
      "individual": 1086,
      "reason": 1087,
      "adjective": 1088,
      "--": 1089,
      "-/": 1090,
      "13": 1091,
      "35": 1092,
      "36": 1093,
      "45": 1094,
      "AI": 1095,
      "AR": 1096,
      "ARC": 1097,
      "For": 1098,
      "HE": 1099,
      "Jo": 1100,
      "Mat": 1101,
      "New": 1102,
      "NESS": 1103,
      "RSI": 1104,
      "SE": 1105,
      "SP": 1106,
      "Sp": 1107,
      "Table": 1108,
      "Un": 1109,
      "^,": 1110,
      "back": 1111,
      "draw": 1112,
      "emotion": 1113,
      "fl": 1114,
      "gr": 1115,
      "gor": 1116,
      "hen": 1117,
      "ile": 1118,
      "ived": 1119,
      "ker": 1120,
      "norm": 1121,
      "od": 1122,
      "pat": 1123,
      "ud": 1124,
      "way": 1125,
      "through": 1126,
      "ina": 1127,
      "recogn": 1128,
      "there": 1129,
      "ortho": 1130,
      "eness": 1131,
      "token": 1132,
      "deve": 1133,
      "demon": 1134,
      "degree": 1135,
      "being": 1136,
      "rotation": 1137,
      "conn": 1138,
      "coded": 1139,
      "terms": 1140,
      "proble": 1141,
      "ign": 1142,
      "very": 1143,
      "ithm": 1144,
      "ull": 1145,
      "lop": 1146,
      "ize": 1147,
      "sertation": 1148,
      "contin": 1149,
      "channel": 1150,
      "1973": 1151,
      "State": 1152,
      "DECODE": 1153,
      "contains": 1154,
      "ficial": 1155,
      "interpre": 1156,
      "matrices": 1157,
      "port": 1158,
      "indicated": 1159,
      "position": 1160,
      "requires": 1161,
      "Transformation": 1162,
      "complete": 1163,
      "Structures": 1164,
      "RELNODE": 1165,
      "MOVE": 1166,
      "fail": 1167,
      "sequence": 1168,
      "following": 1169,
      "VERY": 1170,
      "analysis": 1171,
      "SHAPE": 1172,
      "photograph": 1173,
      "TRAN": 1174,
      "clarative": 1175,
      "answer": 1176,
      "restrictions": 1177,
      "ARCH": 1178,
      "Matri": 1179,
      "RSIB": 1180,
      "Space": 1181,
      "gorithm": 1182,
      "pattern": 1183,
      "tokens": 1184,
      "develop": 1185,
      "25": 1186,
      "26": 1187,
      "37": 1188,
      "3D": 1189,
      "CU": 1190,
      "Car": 1191,
      "ED": 1192,
      "PU": 1193,
      "Ph": 1194,
      "Po": 1195,
      "Que": 1196,
      "RP": 1197,
      "RIGHT": 1198,
      "When": 1199,
      "YES": 1200,
      "ZE": 1201,
      "effect": 1202,
      "hn": 1203,
      "lim": 1204,
      "null": 1205,
      "over": 1206,
      "rase": 1207,
      "sha": 1208,
      "tro": 1209,
      "text": 1210,
      "ward": 1211,
      "writ": 1212,
      "ins": 1213,
      "incor": 1214,
      "referen": 1215,
      "anim": 1216,
      "ater": 1217,
      "ene": 1218,
      "ities": 1219,
      "ves": 1220,
      "lex": 1221,
      "because": 1222,
      "ents": 1223,
      "ching": 1224,
      "suit": 1225,
      "magn": 1226,
      "igence": 1227,
      "acement": 1228,
      "ably": 1229,
      "ferent": 1230,
      "grad": 1231,
      "ult": 1232,
      "ately": 1233,
      "finition": 1234,
      "modeling": 1235,
      "ENS": 1236,
      "tificial": 1237,
      "substring": 1238,
      "accept": 1239,
      "basic": 1240,
      "introduc": 1241,
      "BOL": 1242,
      "programs": 1243,
      "ITBOL": 1244,
      "dissertation": 1245,
      "multiple": 1246,
      "height": 1247,
      "vision": 1248,
      "MODIFI": 1249,
      "generate": 1250,
      "lligence": 1251,
      "SIZE": 1252,
      "transformations": 1253,
      "modified": 1254,
      "box": 1255,
      "fici": 1256,
      "ROU": 1257,
      "****": 1258,
      "TEXT": 1259,
      "additional": 1260,
      "Definition": 1261,
      "networks": 1262,
      "complex": 1263,
      "Arch": 1264,
      "like": 1265,
      "medi": 1266,
      "hierarchical": 1267,
      "SPAREN": 1268,
      "Wino": 1269,
      "human": 1270,
      "various": 1271,
      "express": 1272,
      "communication": 1273,
      "easi": 1274,
      "knowled": 1275,
      "John": 1276,
      "SPITBOL": 1277,
      "orthogon": 1278,
      "TRANSPAREN": 1279,
      "Matrix": 1280,
      "incorpor": 1281,
      "magnitu": 1282,
      "knowledge": 1283,
      "24": 1284,
      "Al": 1285,
      "Au": 1286,
      "BRIGHT": 1287,
      "CH": 1288,
      "Case": 1289,
      "FI": 1290,
      "Gra": 1291,
      "II": 1292,
      "IME": 1293,
      "Lan": 1294,
      "Lex": 1295,
      "Non": 1296,
      "Nor": 1297,
      "NODE": 1298,
      "Pro": 1299,
      "PRE": 1300,
      "Su": 1301,
      "Sci": 1302,
      "TIME": 1303,
      "bu": 1304,
      "ck": 1305,
      "down": 1306,
      "duction": 1307,
      "fter": 1308,
      "fac": 1309,
      "ger": 1310,
      "ice": 1311,
      "ky": 1312,
      "licated": 1313,
      "mis": 1314,
      "ming": 1315,
      "na": 1316,
      "ning": 1317,
      "tran": 1318,
      "ube": 1319,
      "yet": 1320,
      "yie": 1321,
      "inst": 1322,
      "rest": 1323,
      "read": 1324,
      "recor": 1325,
      "remain": 1326,
      "theory": 1327,
      "ork": 1328,
      "ort": 1329,
      "ise": 1330,
      "algorithm": 1331,
      "itsel": 1332,
      "stor": 1333,
      "assu": 1334,
      "les": 1335,
      "lear": 1336,
      "less": 1337,
      "move": 1338,
      "while": 1339,
      "spect": 1340,
      "format": 1341,
      "exact": 1342,
      "aren": 1343,
      "quant": 1344,
      "urther": 1345,
      "dial": 1346,
      "perim": 1347,
      "complished": 1348,
      "find": 1349,
      "finite": 1350,
      "test": 1351,
      "ODES": 1352,
      "phys": 1353,
      "accomplished": 1354,
      "languages": 1355,
      "ATN": 1356,
      "apple": 1357,
      "should": 1358,
      "verbs": 1359,
      "....................................": 1360,
      "LOR": 1361,
      "operation": 1362,
      "nouns": 1363,
      "modification": 1364,
      "colle": 1365,
      "conceptualization": 1366,
      "9999": 1367,
      "frames": 1368,
      "performs": 1369,
      "value": 1370,
      "Structured": 1371,
      "COLOR": 1372,
      "describe": 1373,
      "technique": 1374,
      "RELNODES": 1375,
      "implementation": 1376,
      "coordinate": 1377,
      "coordinates": 1378,
      "consist": 1379,
      "higher": 1380,
      "initi": 1381,
      "interest": 1382,
      "appear": 1383,
      "idio": 1384,
      "evok": 1385,
      "discussed": 1386,
      "relationships": 1387,
      "problem": 1388,
      "continu": 1389,
      "interpretation": 1390,
      "CUBE": 1391,
      "Polygon": 1392,
      "shape": 1393,
      "written": 1394,
      "lexicon": 1395,
      "MODIFIERS": 1396,
      "Winograd": 1397,
      "easily": 1398,
      "Lexicon": 1399,
      "North": 1400,
      "Science": 1401,
      "yield": 1402,
      "record": 1403,
      "itself": 1404,
      "quantitative": 1405,
      "physical": 1406,
      "\",": 1407,
      ",)": 1408,
      "04": 1409,
      "29": 1410,
      "32": 1411,
      "33": 1412,
      "51": 1413,
      "69": 1414,
      "Ambigu": 1415,
      "CR": 1416,
      "CY": 1417,
      "CON": 1418,
      "Chap": 1419,
      "Cube": 1420,
      "FE": 1421,
      "Fri": 1422,
      "FAI": 1423,
      "GURE": 1424,
      "IB": 1425,
      "LIST": 1426,
      "MN": 1427,
      "No": 1428,
      "OU": 1429,
      "Pr": 1430,
      "SU": 1431,
      "Sy": 1432,
      "Tech": 1433,
      "Ver": 1434,
      "Vis": 1435,
      "WI": 1436,
      "York": 1437,
      "am": 1438,
      "bor": 1439,
      "bal": 1440,
      "bed": 1441,
      "bably": 1442,
      "cer": 1443,
      "dist": 1444,
      "due": 1445,
      "equal": 1446,
      "figure": 1447,
      "further": 1448,
      "gment": 1449,
      "ire": 1450,
      "ian": 1451,
      "kind": 1452,
      "lation": 1453,
      "later": 1454,
      "mation": 1455,
      "pur": 1456,
      "si": 1457,
      "tre": 1458,
      "tle": 1459,
      "inal": 1460,
      "inclu": 1461,
      "theore": 1462,
      "onto": 1463,
      "attemp": 1464,
      "iss": 1465,
      "alread": 1466,
      "often": 1467,
      "ceived": 1468,
      "top": 1469,
      "itly": 1470,
      "iteness": 1471,
      "stion": 1472,
      "art": 1473,
      "argu": 1474,
      "declarative": 1475,
      "ases": 1476,
      "seen": 1477,
      "sess": 1478,
      "seem": 1479,
      "section": 1480,
      ".........": 1481,
      "lect": 1482,
      "import": 1483,
      "chec": 1484,
      "cond": 1485,
      "conver": 1486,
      "raffe": 1487,
      "suf": 1488,
      "strated": 1489,
      "make": 1490,
      "explic": 1491,
      "produ": 1492,
      "iginal": 1493,
      "........................": 1494,
      "............................": 1495,
      "agre": 1496,
      "area": 1497,
      "absol": 1498,
      "diction": 1499,
      "parsed": 1500,
      "sycho": 1501,
      "Inte": 1502,
      "embo": 1503,
      "complicated": 1504,
      "structured": 1505,
      "guage": 1506,
      "itioned": 1507,
      "singular": 1508,
      "many": 1509,
      "ENT": 1510,
      "definiteness": 1511,
      "tiv": 1512,
      "subject": 1513,
      "subset": 1514,
      "accur": 1515,
      "olina": 1516,
      "THAT": 1517,
      "early": 1518,
      "show": 1519,
      "links": 1520,
      "diffic": 1521,
      "different": 1522,
      "spea": 1523,
      "representing": 1524,
      "head": 1525,
      "1971": 1526,
      "1972": 1527,
      "1975": 1528,
      "depth": 1529,
      "general": 1530,
      "every": 1531,
      "both": 1532,
      "giraffe": 1533,
      "exists": 1534,
      "does": 1535,
      "LUMN": 1536,
      "partment": 1537,
      "possess": 1538,
      "conceptualizations": 1539,
      "located": 1540,
      "valu": 1541,
      "ACTIONS": 1542,
      "Artificial": 1543,
      "COLUMN": 1544,
      "created": 1545,
      "structural": 1546,
      "determine": 1547,
      "response": 1548,
      "ference": 1549,
      "displacement": 1550,
      "results": 1551,
      "definitions": 1552,
      "LOCATION": 1553,
      "consider": 1554,
      "commands": 1555,
      "ROTATION": 1556,
      "provide": 1557,
      "evolution": 1558,
      "successful": 1559,
      "VALUES": 1560,
      "HEIGHT": 1561,
      "normal": 1562,
      "connected": 1563,
      "Carolina": 1564,
      "ENSION": 1565,
      "introduced": 1566,
      "ROUGH": 1567,
      "TEXTURE": 1568,
      "orthogonal": 1569,
      "BRIGHTNESS": 1570,
      "FIGURE": 1571,
      "Language": 1572,
      "periment": 1573,
      "idioms": 1574,
      "049999": 1575,
      "Chapter": 1576,
      "already": 1577,
      "produce": 1578,
      "absolute": 1579,
      "dictionary": 1580,
      "Intelligence": 1581,
      "(-": 1582,
      "+-/": 1583,
      ".,": 1584,
      "28": 1585,
      "2b": 1586,
      "38": 1587,
      "41": 1588,
      "55": 1589,
      "77": 1590,
      "79": 1591,
      "?\",": 1592,
      "AG": 1593,
      "Ad": 1594,
      "At": 1595,
      "All": 1596,
      "Bo": 1597,
      "Cho": 1598,
      "Dimension": 1599,
      "EE": 1600,
      "GE": 1601,
      "GIST": 1602,
      "Mass": 1603,
      "Ne": 1604,
      "On": 1605,
      "Picture": 1606,
      "Qu": 1607,
      "So": 1608,
      "Sim": 1609,
      "Sect": 1610,
      "Sta": 1611,
      "UN": 1612,
      "US": 1613,
      "VN": 1614,
      "[$": 1615,
      "],": 1616,
      "^.": 1617,
      "ain": 1618,
      "amin": 1619,
      "affect": 1620,
      "after": 1621,
      "bro": 1622,
      "bran": 1623,
      "cent": 1624,
      "da": 1625,
      "el": 1626,
      "equ": 1627,
      "fers": 1628,
      "fore": 1629,
      "gin": 1630,
      "jda": 1631,
      "land": 1632,
      "last": 1633,
      "lational": 1634,
      "lack": 1635,
      "mic": 1636,
      "mmer": 1637,
      "pages": 1638,
      "ture": 1639,
      "tri": 1640,
      "ust": 1641,
      "uitive": 1642,
      "vary": 1643,
      "thor": 1644,
      "inde": 1645,
      "independ": 1646,
      "incorrect": 1647,
      "res": 1648,
      "repl": 1649,
      "reject": 1650,
      "research": 1651,
      "themat": 1652,
      "ons": 1653,
      "ana": 1654,
      "anom": 1655,
      "original": 1656,
      "eng": 1657,
      "encoded": 1658,
      "ero": 1659,
      "along": 1660,
      "topo": 1661,
      "ited": 1662,
      "ste": 1663,
      "ston": 1664,
      "aris": 1665,
      "dec": 1666,
      "sever": 1667,
      "best": 1668,
      "becom": 1669,
      "begin": 1670,
      "entire": 1671,
      "forward": 1672,
      "imper": 1673,
      "comb": 1674,
      "motiv": 1675,
      "what": 1676,
      "sparen": 1677,
      "struc": 1678,
      "mach": 1679,
      "exhi": 1680,
      "examin": 1681,
      "produc": 1682,
      "ilities": 1683,
      "There": 1684,
      "Theory": 1685,
      "abilities": 1686,
      "REGIST": 1687,
      "unt": 1688,
      "parse": 1689,
      "Intro": 1690,
      "ement": 1691,
      "spaces": 1692,
      "havi": 1693,
      "hammer": 1694,
      "need": 1695,
      "phone": 1696,
      "phrase": 1697,
      "redness": 1698,
      "transmitted": 1699,
      "uses": 1700,
      "LETE": 1701,
      "mind": 1702,
      "earli": 1703,
      "lines": 1704,
      "matching": 1705,
      "PAR": 1706,
      "ending": 1707,
      "output": 1708,
      "CIRCLES": 1709,
      "scan": 1710,
      "adding": 1711,
      "................................................": 1712,
      "............................................": 1713,
      ".........................................": 1714,
      "THERE": 1715,
      "extension": 1716,
      "processed": 1717,
      "processing": 1718,
      "generated": 1719,
      "generative": 1720,
      "lled": 1721,
      "even": 1722,
      "nodes": 1723,
      "common": 1724,
      "tions": 1725,
      "ified": 1726,
      "msky": 1727,
      "DELETE": 1728,
      "currently": 1729,
      "docu": 1730,
      "worlds": 1731,
      "logical": 1732,
      ",,,,,,": 1733,
      "examples": 1734,
      "conceptualize": 1735,
      "specification": 1736,
      "performed": 1737,
      "actions": 1738,
      "arily": 1739,
      "Transition": 1740,
      "approach": 1741,
      "much": 1742,
      "solve": 1743,
      "those": 1744,
      "primarily": 1745,
      "descript": 1746,
      "rules": 1747,
      "chosen": 1748,
      "succeed": 1749,
      "implemented": 1750,
      "resulting": 1751,
      "themsel": 1752,
      "sequent": 1753,
      "ACK": 1754,
      "ACL": 1755,
      "Example": 1756,
      "Model": 1757,
      "directly": 1758,
      "hierarchy": 1759,
      "symbolic": 1760,
      "____": 1761,
      "implied": 1762,
      "returned": 1763,
      "computational": 1764,
      "illustrate": 1765,
      "PPs": 1766,
      "removed": 1767,
      "constructed": 1768,
      "execut": 1769,
      "scaling": 1770,
      "udhammer": 1771,
      "DECODED": 1772,
      "fails": 1773,
      "patterns": 1774,
      "Questions": 1775,
      "references": 1776,
      "medium": 1777,
      "TRANSPARENCY": 1778,
      "magnitudes": 1779,
      "Also": 1780,
      "Augment": 1781,
      "buil": 1782,
      "transparen": 1783,
      "dialog": 1784,
      "collection": 1785,
      "Frijda": 1786,
      "FAIL": 1787,
      "IBM": 1788,
      "Verbal": 1789,
      "Visual": 1790,
      "amoun": 1791,
      "explicitly": 1792,
      "...........................": 1793,
      "agreement": 1794,
      "difficult": 1795,
      "FIGURES": 1796,
      "AGT": 1797,
      "Chomsky": 1798,
      "Network": 1799,
      "Section": 1800,
      "Staudhammer": 1801,
      "broken": 1802,
      "branch": 1803,
      "independence": 1804,
      "anomal": 1805,
      "several": 1806,
      "becomes": 1807,
      "imperative": 1808,
      "Introduction": 1809,
      "havior": 1810,
      "phoneme": 1811,
      "earlier": 1812,
      "themselves": 1813,
      "Augmented": 1814,
      "#>": 1815,
      ");": 1816,
      ".),": 1817,
      "42": 1818,
      "43": 1819,
      "48": 1820,
      "49": 1821,
      "62": 1822,
      "63": 1823,
      "66": 1824,
      "67": 1825,
      "72": 1826,
      "81": 1827,
      ":-/": 1828,
      ">.": 1829,
      "Ano": 1830,
      "Bob": 1831,
      "BACK": 1832,
      "CCE": 1833,
      "DO": 1834,
      "Dis": 1835,
      "DES": 1836,
      "Ed": 1837,
      "Fin": 1838,
      "FIN": 1839,
      "GPT": 1840,
      "Here": 1841,
      "Il": 1842,
      "IPT": 1843,
      "Me": 1844,
      "Mar": 1845,
      "MAN": 1846,
      "MENSION": 1847,
      "Ob": 1848,
      "Page": 1849,
      "ST": 1850,
      "Spe": 1851,
      "Sample": 1852,
      "Ty": 1853,
      "Using": 1854,
      "VT": 1855,
      "With": 1856,
      "WAR": 1857,
      "YOU": 1858,
      "av": 1859,
      "amb": 1860,
      "ahead": 1861,
      "bra": 1862,
      "bility": 1863,
      "blished": 1864,
      "ccur": 1865,
      "dy": 1866,
      "den": 1867,
      "dim": 1868,
      "dge": 1869,
      "ei": 1870,
      "ey": 1871,
      "emp": 1872,
      "ether": 1873,
      "fer": 1874,
      "ged": 1875,
      "ges": 1876,
      "hy": 1877,
      "hard": 1878,
      "ious": 1879,
      "jor": 1880,
      "just": 1881,
      "lp": 1882,
      "might": 1883,
      "ois": 1884,
      "ps": 1885,
      "pu": 1886,
      "py": 1887,
      "pon": 1888,
      "pen": 1889,
      "past": 1890,
      "ror": 1891,
      "run": 1892,
      "right": 1893,
      "rite": 1894,
      "sl": 1895,
      "ssion": 1896,
      "sitive": 1897,
      "size": 1898,
      "tra": 1899,
      "tts": 1900,
      "usu": 1901,
      "vo": 1902,
      "ware": 1903,
      "wide": 1904,
      "write": 1905,
      "xim": 1906,
      "you": 1907,
      "things": 1908,
      "inct": 1909,
      "ination": 1910,
      "inhe": 1911,
      "incre": 1912,
      "reach": 1913,
      "ang": 1914,
      "oric": 1915,
      "ency": 1916,
      "error": 1917,
      "tomat": 1918,
      "itute": 1919,
      "stitute": 1920,
      "ick": 1921,
      "icates": 1922,
      "arly": 1923,
      "det": 1924,
      "degre": 1925,
      "demic": 1926,
      "asant": 1927,
      "let": 1928,
      "least": 1929,
      "belong": 1930,
      "behavior": 1931,
      "images": 1932,
      "conference": 1933,
      "whether": 1934,
      "member": 1935,
      "mathemat": 1936,
      "major": 1937,
      "project": 1938,
      "proceed": 1939,
      "probably": 1940,
      "ilm": 1941,
      "ively": 1942,
      "version": 1943,
      "ception": 1944,
      "nology": 1945,
      "pose": 1946,
      "und": 1947,
      "uni": 1948,
      "units": 1949,
      "press": 1950,
      "ulate": 1951,
      "partic": 1952,
      "concepts": 1953,
      "util": 1954,
      "Institute": 1955,
      "cial": 1956,
      "perhap": 1957,
      "compre": 1958,
      "compil": 1959,
      "ridge": 1960,
      "having": 1961,
      "tele": 1962,
      "taken": 1963,
      "means": 1964,
      "net": 1965,
      "well": 1966,
      "phics": 1967,
      "phoric": 1968,
      "reduc": 1969,
      "reduction": 1970,
      "transition": 1971,
      "usetts": 1972,
      "definite": 1973,
      "tial": 1974,
      "achusetts": 1975,
      "ATE": 1976,
      "pleasant": 1977,
      "minal": 1978,
      "intent": 1979,
      "intuitive": 1980,
      "line": 1981,
      "linois": 1982,
      "obser": 1983,
      "series": 1984,
      "ITY": 1985,
      "correspon": 1986,
      "contents": 1987,
      "represented": 1988,
      "scene": 1989,
      "standing": 1990,
      "multiplication": 1991,
      "help": 1992,
      "taining": 1993,
      "BOXES": 1994,
      "active": 1995,
      "...................................": 1996,
      "strings": 1997,
      "generates": 1998,
      "relative": 1999,
      "modifi": 2000,
      "DEFIN": 2001,
      "question": 2002,
      "assign": 2003,
      "Relation": 2004,
      "TOP": 2005,
      "saved": 2006,
      "posed": 2007,
      ",,,,,,,,": 2008,
      "Department": 2009,
      "fully": 2010,
      "ING": 2011,
      "Transform": 2012,
      "KEYS": 2013,
      "COM": 2014,
      "idea": 2015,
      "sense": 2016,
      "determiner": 2017,
      "determined": 2018,
      "responses": 2019,
      "result": 2020,
      "CEPT": 2021,
      "factor": 2022,
      "great": 2023,
      "green": 2024,
      "transformed": 2025,
      "ACM": 2026,
      "Ann": 2027,
      "previously": 2028,
      "symbols": 2029,
      "author": 2030,
      "mons": 2031,
      "FORM": 2032,
      "FORWAR": 2033,
      "SPACE": 2034,
      "Winston": 2035,
      "initial": 2036,
      "implies": 2037,
      "expression": 2038,
      "linguistic": 2039,
      "linguistics": 2040,
      "capable": 2041,
      "effici": 2042,
      "idiom": 2043,
      "paper": 2044,
      "pair": 2045,
      "expand": 2046,
      "evoke": 2047,
      "DID": 2048,
      "DIMENSION": 2049,
      "involved": 2050,
      "straight": 2051,
      "execution": 2052,
      "scalar": 2053,
      "VALUE": 2054,
      "reasonable": 2055,
      "flag": 2056,
      "recognition": 2057,
      "demonstrate": 2058,
      "photographs": 2059,
      "development": 2060,
      "Whenever": 2061,
      "limited": 2062,
      "insight": 2063,
      "animal": 2064,
      "expressing": 2065,
      "Graphics": 2066,
      "PREP": 2067,
      "Such": 2068,
      "remaining": 2069,
      "storage": 2070,
      "learn": 2071,
      "initiated": 2072,
      "evoked": 2073,
      "Ambiguous": 2074,
      "CRIPT": 2075,
      "CONCEPT": 2076,
      "SUCCE": 2077,
      "Techn": 2078,
      "certain": 2079,
      "six": 2080,
      "included": 2081,
      "importance": 2082,
      "checking": 2083,
      "accurate": 2084,
      "speaker": 2085,
      "values": 2086,
      "Massachusetts": 2087,
      "Some": 2088,
      "Simmons": 2089,
      "varying": 2090,
      "anaphoric": 2091,
      "topology": 2092,
      "beginning": 2093,
      "machine": 2094,
      "exhibit": 2095,
      "until": 2096,
      "PARSE": 2097,
      "executed": 2098,
      "built": 2099,
      "anomalous": 2100,
      "Another": 2101,
      "Bobrow": 2102,
      "DOES": 2103,
      "DESCRIPT": 2104,
      "Illinois": 2105,
      "Type": 2106,
      "dimen": 2107,
      "either": 2108,
      "published": 2109,
      "usually": 2110,
      "inherent": 2111,
      "degrees": 2112,
      "particular": 2113,
      "perhaps": 2114,
      "FORWARD": 2115,
      "DIMENSIONAL": 2116,
      "SUCCEED": 2117,
      "DESCRIPTION": 2118,
      "(+": 2119,
      "34": 2120,
      "44": 2121,
      "50": 2122,
      "52": 2123,
      "53": 2124,
      "54": 2125,
      "57": 2126,
      "59": 2127,
      "61": 2128,
      "71": 2129,
      "76": 2130,
      "80": 2131,
      "83": 2132,
      "85": 2133,
      ":$": 2134,
      "AB": 2135,
      "Ap": 2136,
      "Aider": 2137,
      "BY": 2138,
      "Be": 2139,
      "BER": 2140,
      "BIT": 2141,
      "CS": 2142,
      "Ch": 2143,
      "Cal": 2144,
      "DTH": 2145,
      "Duc": 2146,
      "East": 2147,
      "FT": 2148,
      "From": 2149,
      "HO": 2150,
      "Iow": 2151,
      "KY": 2152,
      "Ling": 2153,
      "LAR": 2154,
      "Mill": 2155,
      "Miss": 2156,
      "Near": 2157,
      "NER": 2158,
      "Of": 2159,
      "One": 2160,
      "PL": 2161,
      "Pre": 2162,
      "PTH": 2163,
      "PRO": 2164,
      "Produc": 2165,
      "Psycho": 2166,
      "Ro": 2167,
      "Ral": 2168,
      "Rep": 2169,
      "SA": 2170,
      "SKY": 2171,
      "TAB": 2172,
      "Uta": 2173,
      "VI": 2174,
      "VECT": 2175,
      "Wo": 2176,
      "Word": 2177,
      "XROT": 2178,
      "YROT": 2179,
      "ZLOC": 2180,
      "ax": 2181,
      "avi": 2182,
      "bi": 2183,
      "bing": 2184,
      "blan": 2185,
      "cis": 2186,
      "clo": 2187,
      "coun": 2188,
      "crit": 2189,
      "cases": 2190,
      "duct": 2191,
      "dden": 2192,
      "eat": 2193,
      "est": 2194,
      "ele": 2195,
      "eous": 2196,
      "eigh": 2197,
      "equi": 2198,
      "ell": 2199,
      "eating": 2200,
      "free": 2201,
      "fast": 2202,
      "fru": 2203,
      "film": 2204,
      "give": 2205,
      "gister": 2206,
      "grow": 2207,
      "gain": 2208,
      "her": 2209,
      "him": 2210,
      "hension": 2211,
      "hist": 2212,
      "hear": 2213,
      "ior": 2214,
      "ifor": 2215,
      "iving": 2216,
      "lit": 2217,
      "lies": 2218,
      "leng": 2219,
      "mary": 2220,
      "mid": 2221,
      "next": 2222,
      "ok": 2223,
      "old": 2224,
      "ople": 2225,
      "occur": 2226,
      "pp": 2227,
      "pus": 2228,
      "pass": 2229,
      "psycho": 2230,
      "ry": 2231,
      "ron": 2232,
      "rof": 2233,
      "rated": 2234,
      "rout": 2235,
      "son": 2236,
      "sat": 2237,
      "sme": 2238,
      "sig": 2239,
      "squ": 2240,
      "sist": 2241,
      "situ": 2242,
      "tal": 2243,
      "tive": 2244,
      "tension": 2245,
      "tend": 2246,
      "wit": 2247,
      "wish": 2248,
      "wid": 2249,
      "wise": 2250,
      "x2": 2251,
      "x3": 2252,
      "yes": 2253,
      "year": 2254,
      "zero": 2255,
      "ined": 2256,
      "infor": 2257,
      "ines": 2258,
      "inner": 2259,
      "inspect": 2260,
      "rece": 2261,
      "rely": 2262,
      "restored": 2263,
      "resol": 2264,
      "aning": 2265,
      "another": 2266,
      "aneous": 2267,
      "atible": 2268,
      "attri": 2269,
      "ori": 2270,
      "ors": 2271,
      "enci": 2272,
      "erial": 2273,
      "issu": 2274,
      "alu": 2275,
      "edit": 2276,
      "edback": 2277,
      "ofess": 2278,
      "cell": 2279,
      "tou": 2280,
      "ctive": 2281,
      "itect": 2282,
      "stack": 2283,
      "stitu": 2284,
      "stud": 2285,
      "icate": 2286,
      "arge": 2287,
      "def": 2288,
      "deo": 2289,
      "decoded": 2290,
      "asses": 2291,
      "sely": 2292,
      "semb": 2293,
      "oups": 2294,
      "below": 2295,
      "beli": 2296,
      "ential": 2297,
      "entities": 2298,
      "entry": 2299,
      "rote": 2300,
      "robo": 2301,
      "ford": 2302,
      "ched": 2303,
      "constitu": 2304,
      "code": 2305,
      "come": 2306,
      "colo": 2307,
      "coding": 2308,
      "copy": 2309,
      "moder": 2310,
      "moved": 2311,
      "who": 2312,
      "rather": 2313,
      "racy": 2314,
      "sup": 2315,
      "ters": 2316,
      "metho": 2317,
      "formed": 2318,
      "making": 2319,
      "experiment": 2320,
      "product": 2321,
      "ild": 2322,
      "ption": 2323,
      "....................": 2324,
      "agg": 2325,
      "agree": 2326,
      "note": 2327,
      "quality": 2328,
      "abstra": 2329,
      "ences": 2330,
      "adings": 2331,
      "polar": 2332,
      "feedback": 2333,
      "unless": 2334,
      "died": 2335,
      "prep": 2336,
      "preced": 2337,
      "uli": 2338,
      "ultim": 2339,
      "Inc": 2340,
      "perceived": 2341,
      "perception": 2342,
      "person": 2343,
      "ectively": 2344,
      "compo": 2345,
      "comparis": 2346,
      "compatible": 2347,
      "istic": 2348,
      "tered": 2349,
      "derived": 2350,
      "wered": 2351,
      "guid": 2352,
      "phr": 2353,
      "loy": 2354,
      "manip": 2355,
      "ENESS": 2356,
      "plan": 2357,
      "plus": 2358,
      "play": 2359,
      "transmit": 2360,
      "noting": 2361,
      "jects": 2362,
      "subsystem": 2363,
      "submitted": 2364,
      "subtle": 2365,
      "subsequent": 2366,
      "LEFT": 2367,
      "aced": 2368,
      "acent": 2369,
      "accu": 2370,
      "achie": 2371,
      "video": 2372,
      "presentation": 2373,
      "ATURE": 2374,
      "illian": 2375,
      "1969": 2376,
      "application": 2377,
      "THAN": 2378,
      "tical": 2379,
      "short": 2380,
      "material": 2381,
      "cording": 2382,
      "disk": 2383,
      "differs": 2384,
      "changes": 2385,
      "represents": 2386,
      "standard": 2387,
      "1970": 2388,
      "actual": 2389,
      "hidden": 2390,
      "people": 2391,
      "classes": 2392,
      "nia": 2393,
      "simult": 2394,
      "associates": 2395,
      "evalu": 2396,
      "operations": 2397,
      "...»": 2398,
      "key": 2399,
      "others": 2400,
      "sets": 2401,
      "Weiss": 2402,
      "relational": 2403,
      "relating": 2404,
      "Context": 2405,
      "numbers": 2406,
      "ACTS": 2407,
      "ACTs": 2408,
      "DEPTH": 2409,
      "gies": 2410,
      "lower": 2411,
      "ids": 2412,
      "Research": 2413,
      "Recogn": 2414,
      "Register": 2415,
      "parsers": 2416,
      "said": 2417,
      "clear": 2418,
      "store": 2419,
      "conceptualized": 2420,
      "specifies": 2421,
      "performing": 2422,
      "Declarative": 2423,
      "respectively": 2424,
      "arian": 2425,
      "ambiguous": 2426,
      "listener": 2427,
      "approxim": 2428,
      "Concepts": 2429,
      "creation": 2430,
      "cannot": 2431,
      "ideal": 2432,
      "ideas": 2433,
      "senses": 2434,
      "sensitive": 2435,
      "solids": 2436,
      "Comput": 2437,
      "describing": 2438,
      "ruth": 2439,
      "MORE": 2440,
      "NOT": 2441,
      "mechanisms": 2442,
      "merged": 2443,
      "maintain": 2444,
      "directed": 2445,
      "controlled": 2446,
      "follows": 2447,
      "automat": 2448,
      "pictures": 2449,
      "answered": 2450,
      "adjacent": 2451,
      "simplest": 2452,
      "AST": 2453,
      "VERB": 2454,
      "huge": 2455,
      "integr": 2456,
      "qualitative": 2457,
      "cube": 2458,
      "capabilities": 2459,
      "duate": 2460,
      "effor": 2461,
      "illustr": 2462,
      "illustrated": 2463,
      "clusion": 2464,
      "good": 2465,
      "involve": 2466,
      "strained": 2467,
      "constructions": 2468,
      "tempor": 2469,
      "evolved": 2470,
      "displayed": 2471,
      "discuss": 2472,
      "leftmost": 2473,
      "adjectives": 2474,
      "----": 2475,
      "drawing": 2476,
      "emotional": 2477,
      "recogniz": 2478,
      "demonstrated": 2479,
      "connect": 2480,
      "sequences": 2481,
      "answering": 2482,
      "developed": 2483,
      "370": 2484,
      "PUTE": 2485,
      "PURP": 2486,
      "Phrase": 2487,
      "effective": 2488,
      "insure": 2489,
      "animation": 2490,
      "accepted": 2491,
      "ficient": 2492,
      "******": 2493,
      "complexity": 2494,
      "TRANSPARENT": 2495,
      "incorporate": 2496,
      "incorporated": 2497,
      "magnitude": 2498,
      "Sub": 2499,
      "faced": 2500,
      "facility": 2501,
      "names": 2502,
      "instance": 2503,
      "storing": 2504,
      "exactly": 2505,
      ".....................................": 2506,
      ".......................................": 2507,
      "initially": 2508,
      "evokes": 2509,
      "FEATURE": 2510,
      "Note": 2511,
      "Profess": 2512,
      "WIDTH": 2513,
      "borrow": 2514,
      "distinct": 2515,
      "treated": 2516,
      "theorems": 2517,
      "theoretical": 2518,
      "arguments": 2519,
      "convert": 2520,
      "sufficient": 2521,
      ".............................": 2522,
      "...............................": 2523,
      "embody": 2524,
      "embodied": 2525,
      "(-)": 2526,
      "Dimensionality": 2527,
      "Quillian": 2528,
      "tures": 2529,
      "combin": 2530,
      "motivated": 2531,
      "examining": 2532,
      "produced": 2533,
      "REGISTERS": 2534,
      "..............................................": 2535,
      "document": 2536,
      "descriptive": 2537,
      "Examples": 2538,
      "Models": 2539,
      "transparent": 2540,
      "dialogs": 2541,
      "amount": 2542,
      "Networks": 2543,
      "Eds": 2544,
      "Finite": 2545,
      "Meaning": 2546,
      "Objects": 2547,
      "Speech": 2548,
      "eye": 2549,
      "hyper": 2550,
      "hardware": 2551,
      "reached": 2552,
      "unique": 2553,
      "pressed": 2554,
      "comprehension": 2555,
      "compiled": 2556,
      "television": 2557,
      "reduced": 2558,
      "modifiers": 2559,
      "DEFINED": 2560,
      "COMPUTE": 2561,
      "greatly": 2562,
      "pairs": 2563,
      "straightforward": 2564,
      "Technical": 2565,
      "Aiders": 2566,
      "Califor": 2567,
      "Duck": 2568,
      "Eastman": 2569,
      "Iowa": 2570,
      "Linguist": 2571,
      "Miller": 2572,
      "Producers": 2573,
      "Psychology": 2574,
      "Raleigh": 2575,
      "Report": 2576,
      "TABLE": 2577,
      "Utah": 2578,
      "VECTOR": 2579,
      "closely": 2580,
      "elements": 2581,
      "equival": 2582,
      "fruit": 2583,
      "length": 2584,
      "push": 2585,
      "satis": 2586,
      "smell": 2587,
      "signi": 2588,
      "square": 2589,
      "situations": 2590,
      "width": 2591,
      "receiving": 2592,
      "aneously": 2593,
      "encies": 2594,
      "itecture": 2595,
      "constituent": 2596,
      "colored": 2597,
      "modern": 2598,
      "method": 2599,
      "abstract": 2600,
      "preceding": 2601,
      "ultimately": 2602,
      "guided": 2603,
      "accuracy": 2604,
      "simultaneously": 2605,
      "Weissman": 2606,
      "Recognition": 2607,
      "PURPLE": 2608,
      "Professor": 2609,
      "California": 2610,
      "\".": 2611,
      "\"—": 2612,
      "(^": 2613,
      ")]": 2614,
      ".).": 2615,
      "0D": 2616,
      "0X": 2617,
      "39": 2618,
      "40": 2619,
      "56": 2620,
      "64": 2621,
      "65": 2622,
      "68": 2623,
      "6o": 2624,
      "620": 2625,
      "73": 2626,
      "74": 2627,
      "75": 2628,
      "78": 2629,
      "7x": 2630,
      "90": 2631,
      "98": 2632,
      ">,": 2633,
      "AM": 2634,
      "Ac": 2635,
      "Alan": 2636,
      "Aca": 2637,
      "After": 2638,
      "Again": 2639,
      "BL": 2640,
      "By": 2641,
      "Bru": 2642,
      "B0X": 2643,
      "CA": 2644,
      "City": 2645,
      "Clo": 2646,
      "Col": 2647,
      "CES": 2648,
      "CALL": 2649,
      "Camb": 2650,
      "CACM": 2651,
      "Dr": 2652,
      "Des": 2653,
      "Dial": 2654,
      "DERS": 2655,
      "Draw": 2656,
      "EL": 2657,
      "EW": 2658,
      "EX": 2659,
      "Edi": 2660,
      "EXT": 2661,
      "EAST": 2662,
      "Fa": 2663,
      "Fre": 2664,
      "Fran": 2665,
      "Free": 2666,
      "Gr": 2667,
      "GROU": 2668,
      "HU": 2669,
      "HY": 2670,
      "Hed": 2671,
      "Had": 2672,
      "Hew": 2673,
      "IVE": 2674,
      "Ju": 2675,
      "Ka": 2676,
      "LY": 2677,
      "Lo": 2678,
      "MI": 2679,
      "MM": 2680,
      "MU": 2681,
      "Ms": 2682,
      "Mer": 2683,
      "Mic": 2684,
      "Mich": 2685,
      "Mach": 2686,
      "March": 2687,
      "MENT": 2688,
      "MBER": 2689,
      "M0D": 2690,
      "ND": 2691,
      "NU": 2692,
      "NOB": 2693,
      "Natural": 2694,
      "Norm": 2695,
      "OL": 2696,
      "Or": 2697,
      "Our": 2698,
      "Oper": 2699,
      "OTH": 2700,
      "Other": 2701,
      "PLE": 2702,
      "Pol": 2703,
      "RI": 2704,
      "SO": 2705,
      "Sc": 2706,
      "Se": 2707,
      "San": 2708,
      "Sch": 2709,
      "STO": 2710,
      "SAND": 2711,
      "Shap": 2712,
      "SMO": 2713,
      "Sum": 2714,
      "SOU": 2715,
      "Sons": 2716,
      "SNOB": 2717,
      "T_": 2718,
      "Ter": 2719,
      "TEN": 2720,
      "TER": 2721,
      "TAND": 2722,
      "TIST": 2723,
      "Truth": 2724,
      "TSO": 2725,
      "Use": 2726,
      "UAL": 2727,
      "VIS": 2728,
      "Varian": 2729,
      "Wal": 2730,
      "War": 2731,
      "Wile": 2732,
      "XLOC": 2733,
      "Xero": 2734,
      "Your": 2735,
      "YLOC": 2736,
      "])": 2737,
      "aus": 2738,
      "aut": 2739,
      "ather": 2740,
      "ademic": 2741,
      "bin": 2742,
      "ber": 2743,
      "band": 2744,
      "bted": 2745,
      "bloc": 2746,
      "bridge": 2747,
      "cation": 2748,
      "cri": 2749,
      "cise": 2750,
      "cending": 2751,
      "day": 2752,
      "dality": 2753,
      "eve": 2754,
      "ead": 2755,
      "ety": 2756,
      "eling": 2757,
      "elim": 2758,
      "fo": 2759,
      "fs": 2760,
      "fre": 2761,
      "far": 2762,
      "flong": 2763,
      "flect": 2764,
      "fdef": 2765,
      "gy": 2766,
      "gative": 2767,
      "gene": 2768,
      "hal": 2769,
      "hand": 2770,
      "hind": 2771,
      "io": 2772,
      "iv": 2773,
      "iro": 2774,
      "ired": 2775,
      "ibility": 2776,
      "junction": 2777,
      "kn": 2778,
      "ked": 2779,
      "live": 2780,
      "mor": 2781,
      "mmar": 2782,
      "mory": 2783,
      "mild": 2784,
      "ned": 2785,
      "op": 2786,
      "omp": 2787,
      "ped": 2788,
      "ply": 2789,
      "pra": 2790,
      "pun": 2791,
      "page": 2792,
      "pid": 2793,
      "rig": 2794,
      "rue": 2795,
      "round": 2796,
      "sis": 2797,
      "sure": 2798,
      "sity": 2799,
      "sight": 2800,
      "sible": 2801,
      "sound": 2802,
      "side": 2803,
      "shap": 2804,
      "sign": 2805,
      "swit": 2806,
      "tin": 2807,
      "tit": 2808,
      "tly": 2809,
      "tes": 2810,
      "tated": 2811,
      "tative": 2812,
      "table": 2813,
      "titioned": 2814,
      "tences": 2815,
      "true": 2816,
      "uen": 2817,
      "uce": 2818,
      "ueness": 2819,
      "vir": 2820,
      "ww": 2821,
      "wrote": 2822,
      "ying": 2823,
      "zed": 2824,
      "—.": 2825,
      "■*": 2826,
      "inﬂ": 2827,
      "inser": 2828,
      "inferen": 2829,
      "infinite": 2830,
      "indefinite": 2831,
      "informed": 2832,
      "repro": 2833,
      "really": 2834,
      "review": 2835,
      "reformat": 2836,
      "received": 2837,
      "recent": 2838,
      "rewrite": 2839,
      "resemb": 2840,
      "reflect": 2841,
      "theless": 2842,
      "thesis": 2843,
      "onal": 2844,
      "onent": 2845,
      "onment": 2846,
      "onoun": 2847,
      "onism": 2848,
      "ansion": 2849,
      "ances": 2850,
      "anced": 2851,
      "anford": 2852,
      "atta": 2853,
      "orde": 2854,
      "ories": 2855,
      "enes": 2856,
      "ensy": 2857,
      "encomp": 2858,
      "encoun": 2859,
      "envir": 2860,
      "eris": 2861,
      "ering": 2862,
      "island": 2863,
      "took": 2864,
      "total": 2865,
      "itt": 2866,
      "ital": 2867,
      "itated": 2868,
      "stim": 2869,
      "still": 2870,
      "states": 2871,
      "stulate": 2872,
      "icism": 2873,
      "icomp": 2874,
      "arp": 2875,
      "aring": 2876,
      "arri": 2877,
      "artificial": 2878,
      "deal": 2879,
      "deter": 2880,
      "dequ": 2881,
      "deck": 2882,
      "department": 2883,
      "decoding": 2884,
      "decompo": 2885,
      "asing": 2886,
      "asure": 2887,
      "asser": 2888,
      "ascending": 2889,
      "ands": 2890,
      "andid": 2891,
      "separ": 2892,
      "vey": 2893,
      "oubted": 2894,
      "lely": 2895,
      "behave": 2896,
      "before": 2897,
      "become": 2898,
      "beaut": 2899,
      "entical": 2900,
      "forced": 2901,
      "imal": 2902,
      "imitive": 2903,
      "immedi": 2904,
      "imbed": 2905,
      "char": 2906,
      "chart": 2907,
      "convers": 2908,
      "constrained": 2909,
      "concise": 2910,
      "convey": 2911,
      "espe": 2912,
      "Though": 2913,
      "Tharp": 2914,
      "movi": 2915,
      "moving": 2916,
      "mogene": 2917,
      "why": 2918,
      "rast": 2919,
      "rarely": 2920,
      "rapid": 2921,
      "sum": 2922,
      "suming": 2923,
      "suspect": 2924,
      "sph": 2925,
      "spected": 2926,
      "stration": 2927,
      "strong": 2928,
      "terior": 2929,
      "metic": 2930,
      "memory": 2931,
      "measure": 2932,
      "formally": 2933,
      "mazed": 2934,
      "exper": 2935,
      "exterior": 2936,
      "proces": 2937,
      "proven": 2938,
      "proposed": 2939,
      "igan": 2940,
      "ilms": 2941,
      "They": 2942,
      "sional": 2943,
      "again": 2944,
      "agonal": 2945,
      "nock": 2946,
      "ared": 2947,
      "soph": 2948,
      "solely": 2949,
      "quan": 2950,
      "quick": 2951,
      "usage": 2952,
      "users": 2953,
      "REMOVE": 2954,
      "REFE": 2955,
      "RESTO": 2956,
      "advis": 2957,
      "adverb": 2958,
      "uring": 2959,
      "pointer": 2960,
      "poses": 2961,
      "popp": 2962,
      "postulate": 2963,
      "feas": 2964,
      "feel": 2965,
      "feeling": 2966,
      "unity": 2967,
      "unreasonable": 2968,
      "undirected": 2969,
      "uncontrolled": 2970,
      "did": 2971,
      "dience": 2972,
      "dictive": 2973,
      "diagonal": 2974,
      "predictive": 2975,
      "graduate": 2976,
      "ithmetic": 2977,
      "ulation": 2978,
      "ulated": 2979,
      "ulty": 2980,
      "Inter": 2981,
      "Information": 2982,
      "cipl": 2983,
      "cially": 2984,
      "embed": 2985,
      "pertaining": 2986,
      "compet": 2987,
      "component": 2988,
      "comparing": 2989,
      "without": 2990,
      "finding": 2991,
      "teensy": 2992,
      "dering": 2993,
      "derstanding": 2994,
      "taste": 2995,
      "never": 2996,
      "neck": 2997,
      "nearly": 2998,
      "weight": 2999,
      "weet": 3000,
      "redund": 3001,
      "reduce": 3002,
      "mane": 3003,
      "mental": 3004,
      "plied": 3005,
      "plural": 3006,
      "plified": 3007,
      "plaus": 3008,
      "transfor": 3009,
      "transitive": 3010,
      "transmis": 3011,
      "noted": 3012,
      "notation": 3013,
      "notice": 3014,
      "tice": 3015,
      "LED": 3016,
      "academic": 3017,
      "stems": 3018,
      "ATMs": 3019,
      "bases": 3020,
      "applied": 3021,
      "minor": 3022,
      "mined": 3023,
      "minicomp": 3024,
      "ESE": 3025,
      "ization": 3026,
      "she": 3027,
      "shad": 3028,
      "MODEL": 3029,
      "matic": 3030,
      "match": 3031,
      "matically": 3032,
      "architecture": 3033,
      "programmer": 3034,
      "disjunction": 3035,
      "discipl": 3036,
      "PAs": 3037,
      "content": 3038,
      "GRAMM": 3039,
      "endent": 3040,
      "ours": 3041,
      "ourse": 3042,
      "change": 3043,
      "representa": 3044,
      "outlin": 3045,
      "works": 3046,
      "working": 3047,
      "scenes": 3048,
      "multidimen": 3049,
      "here": 3050,
      "heavi": 3051,
      "tains": 3052,
      "IFY": 3053,
      "verbally": 3054,
      ".................................": 3055,
      "extend": 3056,
      "cast": 3057,
      "simplic": 3058,
      "simulation": 3059,
      "simplified": 3060,
      "ANNER": 3061,
      "understandability": 3062,
      "Stanford": 3063,
      "generally": 3064,
      "...,": 3065,
      "graphic": 3066,
      "keep": 3067,
      "otherwise": 3068,
      "tional": 3069,
      "dependencies": 3070,
      "SIDE": 3071,
      "calls": 3072,
      "calling": 3073,
      "ightly": 3074,
      "related": 3075,
      "106": 3076,
      "1010": 3077,
      "Contro": 3078,
      "Conference": 3079,
      "Conclusion": 3080,
      "board": 3081,
      "iff": 3082,
      "DEGRE": 3083,
      "faces": 3084,
      "lowing": 3085,
      "existence": 3086,
      "ficant": 3087,
      "identical": 3088,
      "interact": 3089,
      "interface": 3090,
      "interactive": 3091,
      "special": 3092,
      "visualized": 3093,
      "Recent": 3094,
      "Relational": 3095,
      "Representation": 3096,
      "tedious": 3097,
      "parts": 3098,
      "partitioned": 3099,
      "portion": 3100,
      "ported": 3101,
      "portions": 3102,
      "sake": 3103,
      "indicates": 3104,
      "indicate": 3105,
      "searching": 3106,
      "print": 3107,
      "pronoun": 3108,
      "polygonal": 3109,
      "ounded": 3110,
      "corrected": 3111,
      "correctly": 3112,
      "conceptualizing": 3113,
      "specify": 3114,
      "surfaces": 3115,
      "Parser": 3116,
      "Parke": 3117,
      "Partitioned": 3118,
      "TEM": 3119,
      "antage": 3120,
      "locate": 3121,
      "165": 3122,
      "session": 3123,
      "formalized": 3124,
      "Deep": 3125,
      "full": 3126,
      "teness": 3127,
      "tensive": 3128,
      "valid": 3129,
      "descendent": 3130,
      "technology": 3131,
      "INT": 3132,
      "ipse": 3133,
      "lists": 3134,
      "ntactic": 3135,
      "Arbor": 3136,
      "BLUENESS": 3137,
      "ORT": 3138,
      "create": 3139,
      "cance": 3140,
      "etc": 3141,
      "typing": 3142,
      "typically": 3143,
      "operating": 3144,
      "blueness": 3145,
      "larger": 3146,
      "REDNESS": 3147,
      "described": 3148,
      "circles": 3149,
      "facts": 3150,
      "roughly": 3151,
      "choo": 3152,
      "choice": 3153,
      "somehow": 3154,
      "somewhat": 3155,
      "operators": 3156,
      "NOUN": 3157,
      "greater": 3158,
      "statements": 3159,
      "design": 3160,
      "desired": 3161,
      "better": 3162,
      "whereby": 3163,
      "versal": 3164,
      "Assuming": 3165,
      "Experiment": 3166,
      "SHORT": 3167,
      "longer": 3168,
      "priori": 3169,
      "recursion": 3170,
      "phosph": 3171,
      "discourse": 3172,
      "framework": 3173,
      "aux": 3174,
      "audience": 3175,
      "adjec": 3176,
      "necessitated": 3177,
      "similarly": 3178,
      "Computers": 3179,
      "ASE": 3180,
      "hoc": 3181,
      "hoped": 3182,
      "homogene": 3183,
      "variety": 3184,
      "intelligence": 3185,
      "restrict": 3186,
      "seeing": 3187,
      "implication": 3188,
      "strategies": 3189,
      "apparen": 3190,
      "linguists": 3191,
      "capability": 3192,
      "easy": 3193,
      "knows": 3194,
      "path": 3195,
      "analog": 3196,
      "explo": 3197,
      "expected": 3198,
      "expansion": 3199,
      "provided": 3200,
      "provides": 3201,
      "computed": 3202,
      "computation": 3203,
      "SHAPES": 3204,
      "photoing": 3205,
      "Semantics": 3206,
      "goal": 3207,
      "involves": 3208,
      "remove": 3209,
      "removal": 3210,
      "RENCES": 3211,
      "advanced": 3212,
      "advantage": 3213,
      "modifying": 3214,
      "powerful": 3215,
      "reasons": 3216,
      "ARTIST": 3217,
      "Fortran": 3218,
      "SEARCH": 3219,
      "Understanding": 3220,
      "Unrestrict": 3221,
      "drawn": 3222,
      "flat": 3223,
      "flav": 3224,
      "groups": 3225,
      "kernel": 3226,
      "normally": 3227,
      "ods": 3228,
      "inadequ": 3229,
      "recognized": 3230,
      "demonstration": 3231,
      "rotations": 3232,
      "rotational": 3233,
      "problems": 3234,
      "continue": 3235,
      "failure": 3236,
      "photographer": 3237,
      "photographed": 3238,
      "Cartes": 3239,
      "PUT": 3240,
      "Question": 3241,
      "overly": 3242,
      "texture": 3243,
      "reference": 3244,
      "suited": 3245,
      "suitable": 3246,
      "suitably": 3247,
      "acceptable": 3248,
      "boxes": 3249,
      "*****": 3250,
      "likely": 3251,
      "humans": 3252,
      "expressed": 3253,
      "orthogonality": 3254,
      "Algorithm": 3255,
      "Grammar": 3256,
      "III": 3257,
      "Proc": 3258,
      "Program": 3259,
      "Probably": 3260,
      "PREVI": 3261,
      "germane": 3262,
      "missive": 3263,
      "name": 3264,
      "named": 3265,
      "instead": 3266,
      "remains": 3267,
      "assume": 3268,
      "assumed": 3269,
      "assuming": 3270,
      "learning": 3271,
      "dials": 3272,
      "tests": 3273,
      "interested": 3274,
      "interesting": 3275,
      "appearance": 3276,
      "continued": 3277,
      "quantitatively": 3278,
      "Ambiguity": 3279,
      "Primitive": 3280,
      "SUB": 3281,
      "Systems": 3282,
      "Syntactic": 3283,
      "WICH": 3284,
      "purpose": 3285,
      "treat": 3286,
      "attempt": 3287,
      "attempts": 3288,
      "attempting": 3289,
      "argument": 3290,
      "seemed": 3291,
      "sectioning": 3292,
      "important": 3293,
      "condition": 3294,
      "conditioned": 3295,
      "conversion": 3296,
      "accurately": 3297,
      "generalized": 3298,
      "valued": 3299,
      "considerable": 3300,
      "ENSIONS": 3301,
      "ROUGHER": 3302,
      "Adage": 3303,
      "Boo": 3304,
      "Box": 3305,
      "Dimensions": 3306,
      "Once": 3307,
      "UNDERS": 3308,
      "equation": 3309,
      "index": 3310,
      "indeed": 3311,
      "resses": 3312,
      "replace": 3313,
      "replacement": 3314,
      "rejected": 3315,
      "engine": 3316,
      "stead": 3317,
      "motivation": 3318,
      "producing": 3319,
      "REGISTER": 3320,
      "documents": 3321,
      ",,,,,,)": 3322,
      ",,,,,,,": 3323,
      "descriptions": 3324,
      "succeeds": 3325,
      "transparency": 3326,
      "amounts": 3327,
      "branches": 3328,
      "48106": 3329,
      "BACKGROU": 3330,
      "Display": 3331,
      "employ": 3332,
      "slightly": 3333,
      "traversal": 3334,
      "increasing": 3335,
      "angle": 3336,
      "letters": 3337,
      "belongs": 3338,
      "members": 3339,
      "mathematical": 3340,
      "majority": 3341,
      "proceedings": 3342,
      "undoubted": 3343,
      "utiliz": 3344,
      "utilize": 3345,
      "observed": 3346,
      "correspond": 3347,
      "corresponding": 3348,
      "helpful": 3349,
      "Annual": 3350,
      "efficiency": 3351,
      "flags": 3352,
      "CONCEPTS": 3353,
      "exhibited": 3354,
      "exhibiting": 3355,
      "DIMENSIONALITY": 3356,
      "(+)": 3357,
      "Application": 3358,
      "Because": 3359,
      "HOT": 3360,
      "LARGE": 3361,
      "PLANNER": 3362,
      "Press": 3363,
      "PROGRAMM": 3364,
      "Rotated": 3365,
      "Woods": 3366,
      "bipolar": 3367,
      "blanks": 3368,
      "cisco": 3369,
      "estab": 3370,
      "ellipse": 3371,
      "history": 3372,
      "little": 3373,
      "midt": 3374,
      "rofilms": 3375,
      "routine": 3376,
      "wishes": 3377,
      "years": 3378,
      "inspecting": 3379,
      "attribut": 3380,
      "issued": 3381,
      "editing": 3382,
      "cells": 3383,
      "touch": 3384,
      "believe": 3385,
      "aggreg": 3386,
      "comparison": 3387,
      "phrases": 3388,
      "manipulate": 3389,
      "subtlety": 3390,
      "subsequently": 3391,
      "achieved": 3392,
      "cordingly": 3393,
      "evaluate": 3394,
      "keyboard": 3395,
      "Declaratives": 3396,
      "approximation": 3397,
      "Computational": 3398,
      "automatically": 3399,
      "VERBAL": 3400,
      "integrating": 3401,
      "efforts": 3402,
      "illustrates": 3403,
      "temporary": 3404,
      "connecting": 3405,
      "Subsequent": 3406,
      "borrowed": 3407,
      "embodying": 3408,
      "combinations": 3409,
      "Linguistics": 3410,
      "TABLES": 3411,
      "equivalent": 3412,
      "satisf": 3413,
      "significant": 3414,
      "7x7": 3415,
      "Academic": 3416,
      "Bruce": 3417,
      "Colby": 3418,
      "Cambridge": 3419,
      "Descri": 3420,
      "Dialog": 3421,
      "Edith": 3422,
      "EXTENSIONS": 3423,
      "EASTMAN": 3424,
      "Factor": 3425,
      "Freeman": 3426,
      "Francisco": 3427,
      "HUGE": 3428,
      "Hedonism": 3429,
      "Hewitt": 3430,
      "July": 3431,
      "Loadings": 3432,
      "MUCH": 3433,
      "Merger": 3434,
      "Microfilms": 3435,
      "Michigan": 3436,
      "M0DIFY": 3437,
      "NUMBER": 3438,
      "Normative": 3439,
      "Operation": 3440,
      "Schmidt": 3441,
      "SANDWICH": 3442,
      "Shapiro": 3443,
      "SMOOTH": 3444,
      "Summary": 3445,
      "SNOBOL": 3446,
      "Terminal": 3447,
      "VISUAL": 3448,
      "Walker": 3449,
      "Warnock": 3450,
      "Wiley": 3451,
      "Xerox": 3452,
      "binary": 3453,
      "blocks": 3454,
      "fsweet": 3455,
      "half": 3456,
      "known": 3457,
      "punched": 3458,
      "shapes": 3459,
      "tiny": 3460,
      "uenced": 3461,
      "reproduction": 3462,
      "ordered": 3463,
      "encompass": 3464,
      "encountered": 3465,
      "stimuli": 3466,
      "assertions": 3467,
      "andidate": 3468,
      "beauty": 3469,
      "imbedded": 3470,
      "especially": 3471,
      "Thought": 3472,
      "processes": 3473,
      "quickly": 3474,
      "REFERENCES": 3475,
      "RESTORE": 3476,
      "advised": 3477,
      "popping": 3478,
      "embedding": 3479,
      "competence": 3480,
      "plausible": 3481,
      "transmission": 3482,
      "minicomputer": 3483,
      "discipline": 3484,
      "heavily": 3485,
      "simplicity": 3486,
      "DEGREES": 3487,
      "Experimental": 3488,
      "homogeneous": 3489,
      "Cartesian": 3490,
      "PREVIEW": 3491,
      "UNDERSTAND": 3492,
      "BACKGROUND": 3493,
      "employed": 3494,
      "undoubtedly": 3495,
      "PROGRAMMER": 3496,
      "Description": 3497,
      "!-": 3498,
      "\")": 3499,
      "\"+": 3500,
      "\"...": 3501,
      "#,": 3502,
      "%)": 3503,
      "(*": 3504,
      "(<": 3505,
      "(@": 3506,
      "([": 3507,
      "().": 3508,
      "(),": 3509,
      "(\"+": 3510,
      ")*": 3511,
      ")\".": 3512,
      "*;": 3513,
      "*■": 3514,
      "++": 3515,
      "+),": 3516,
      ",-": 3517,
      ",»": 3518,
      ",...": 3519,
      "-\"": 3520,
      "-»": 3521,
      ".)": 3522,
      ".|": 3523,
      ".”": 3524,
      "//": 3525,
      "/...": 3526,
      "02": 3527,
      "0AD": 3528,
      "098": 3529,
      "131": 3530,
      "2J": 3531,
      "2V": 3532,
      "2a": 3533,
      "2l": 3534,
      "2n": 3535,
      "223": 3536,
      "2x2": 3537,
      "3b": 3538,
      "3r": 3539,
      "3x": 3540,
      "3Î": 3541,
      "3x3": 3542,
      "46": 3543,
      "47": 3544,
      "4V": 3545,
      "4d": 3546,
      "4o": 3547,
      "4x": 3548,
      "410": 3549,
      "430": 3550,
      "431": 3551,
      "463": 3552,
      "467": 3553,
      "476": 3554,
      "58": 3555,
      "60": 3556,
      "6w": 3557,
      "6ï": 3558,
      "630": 3559,
      "621": 3560,
      "635": 3561,
      "650": 3562,
      "6Ka": 3563,
      "70": 3564,
      "82": 3565,
      "84": 3566,
      "88": 3567,
      "89": 3568,
      "8K": 3569,
      "91": 3570,
      "93": 3571,
      "95": 3572,
      ":+),": 3573,
      "://": 3574,
      ">»": 3575,
      "?'": 3576,
      "?)": 3577,
      "?].": 3578,
      "?\".": 3579,
      "A1": 3580,
      "A3": 3581,
      "Am": 3582,
      "Av": 3583,
      "Ass": 3584,
      "Action": 3585,
      "ABO": 3586,
      "ASS": 3587,
      "AAs": 3588,
      "ABE": 3589,
      "Aspect": 3590,
      "Accur": 3591,
      "Active": 3592,
      "Aband": 3593,
      "Amazed": 3594,
      "BI": 3595,
      "BU": 3596,
      "BZ": 3597,
      "Bx": 3598,
      "Ber": 3599,
      "Bed": 3600,
      "But": 3601,
      "CL": 3602,
      "Cent": 3603,
      "CRE": 3604,
      "CAL": 3605,
      "CAN": 3606,
      "Clow": 3607,
      "Cast": 3608,
      "Crit": 3609,
      "CHE": 3610,
      "Clear": 3611,
      "CENT": 3612,
      "CASE": 3613,
      "Candidate": 3614,
      "Di": 3615,
      "Do": 3616,
      "DRE": 3617,
      "DER": 3618,
      "Due": 3619,
      "Dep": 3620,
      "DLU": 3621,
      "Dew": 3622,
      "Dull": 3623,
      "DENT": 3624,
      "Davi": 3625,
      "Deris": 3626,
      "During": 3627,
      "EF": 3628,
      "EV": 3629,
      "Ep": 3630,
      "Era": 3631,
      "Eag": 3632,
      "Ess": 3633,
      "ERA": 3634,
      "ELE": 3635,
      "Each": 3636,
      "EER": 3637,
      "Effect": 3638,
      "ECU": 3639,
      "Elect": 3640,
      "Early": 3641,
      "FR": 3642,
      "Fil": 3643,
      "FRE": 3644,
      "Fac": 3645,
      "Fol": 3646,
      "FIF": 3647,
      "FLO": 3648,
      "Found": 3649,
      "Ford": 3650,
      "Form": 3651,
      "Further": 3652,
      "FFE": 3653,
      "Fire": 3654,
      "GI": 3655,
      "Ger": 3656,
      "Gran": 3657,
      "Glo": 3658,
      "GLE": 3659,
      "GER": 3660,
      "GIN": 3661,
      "Graw": 3662,
      "H3": 3663,
      "HN": 3664,
      "He": 3665,
      "Hi": 3666,
      "Hou": 3667,
      "Hes": 3668,
      "Hall": 3669,
      "Hag": 3670,
      "Hol": 3671,
      "HAT": 3672,
      "Hill": 3673,
      "High": 3674,
      "Hard": 3675,
      "HAS": 3676,
      "HAM": 3677,
      "IL": 3678,
      "IP": 3679,
      "IV": 3680,
      "Id": 3681,
      "Ide": 3682,
      "Its": 3683,
      "ICE": 3684,
      "ICY": 3685,
      "IEE": 3686,
      "JO": 3687,
      "JR": 3688,
      "Je": 3689,
      "Jan": 3690,
      "Jer": 3691,
      "Jun": 3692,
      "Jef": 3693,
      "JEF": 3694,
      "KL": 3695,
      "Kling": 3696,
      "Key": 3697,
      "LD": 3698,
      "LL": 3699,
      "LP": 3700,
      "La": 3701,
      "Lab": 3702,
      "LAT": 3703,
      "LIT": 3704,
      "LIS": 3705,
      "Let": 3706,
      "LATE": 3707,
      "Large": 3708,
      "Lloy": 3709,
      "LAST": 3710,
      "L0AD": 3711,
      "Ma": 3712,
      "Mc": 3713,
      "Man": 3714,
      "Men": 3715,
      "Mis": 3716,
      "Mul": 3717,
      "MAT": 3718,
      "MIT": 3719,
      "Mout": 3720,
      "MALL": 3721,
      "Move": 3722,
      "M6Ka": 3723,
      "NC": 3724,
      "Noun": 3725,
      "None": 3726,
      "Nay": 3727,
      "National": 3728,
      "Nove": 3729,
      "NED": 3730,
      "Nav": 3731,
      "Nick": 3732,
      "NESE": 3733,
      "NLP": 3734,
      "Oc": 3735,
      "Og": 3736,
      "Op": 3737,
      "OPA": 3738,
      "OGRA": 3739,
      "OCI": 3740,
      "OCO": 3741,
      "Open": 3742,
      "OINT": 3743,
      "Pl": 3744,
      "Pimension": 3745,
      "PON": 3746,
      "PECT": 3747,
      "Pren": 3748,
      "P77": 3749,
      "PHY": 3750,
      "PERA": 3751,
      "POINT": 3752,
      "QU": 3753,
      "Qis": 3754,
      "QUARE": 3755,
      "RS": 3756,
      "RY": 3757,
      "Ru": 3758,
      "Red": 3759,
      "Res": 3760,
      "Rig": 3761,
      "Rap": 3762,
      "Rough": 3763,
      "Rine": 3764,
      "RST": 3765,
      "RING": 3766,
      "Rather": 3767,
      "RDLU": 3768,
      "RNED": 3769,
      "SD": 3770,
      "SW": 3771,
      "Son": 3772,
      "Sen": 3773,
      "Sal": 3774,
      "Sle": 3775,
      "Sent": 3776,
      "Sil": 3777,
      "Sad": 3778,
      "Sur": 3779,
      "SAL": 3780,
      "Suc": 3781,
      "Sever": 3782,
      "Spr": 3783,
      "STRA": 3784,
      "SCH": 3785,
      "Sequ": 3786,
      "Swit": 3787,
      "SMALL": 3788,
      "T6": 3789,
      "TJ": 3790,
      "TY": 3791,
      "Tj": 3792,
      "Tl": 3793,
      "Tq": 3794,
      "Tr": 3795,
      "Ten": 3796,
      "Tim": 3797,
      "Tex": 3798,
      "TRE": 3799,
      "Tri": 3800,
      "TLE": 3801,
      "Text": 3802,
      "T11": 3803,
      "TTO": 3804,
      "T12": 3805,
      "TURE": 3806,
      "TATION": 3807,
      "TERS": 3808,
      "T14": 3809,
      "T23": 3810,
      "T31": 3811,
      "T21": 3812,
      "T22": 3813,
      "T13": 3814,
      "T24": 3815,
      "T32": 3816,
      "T33": 3817,
      "TENT": 3818,
      "T41": 3819,
      "T42": 3820,
      "T34": 3821,
      "T44": 3822,
      "TMENT": 3823,
      "Up": 3824,
      "Ur": 3825,
      "UTE": 3826,
      "UPP": 3827,
      "USE": 3828,
      "UMass": 3829,
      "Upon": 3830,
      "UITY": 3831,
      "UABE": 3832,
      "UDENT": 3833,
      "VP": 3834,
      "Ve": 3835,
      "Vn": 3836,
      "Var": 3837,
      "Would": 3838,
      "WER": 3839,
      "WOR": 3840,
      "WHE": 3841,
      "Work": 3842,
      "WHY": 3843,
      "WLED": 3844,
      "WHAT": 3845,
      "X3": 3846,
      "Xm": 3847,
      "Xgy": 3848,
      "Y1": 3849,
      "Y2": 3850,
      "Y3": 3851,
      "You": 3852,
      "Z2": 3853,
      "Z3": 3854,
      "ZU": 3855,
      "Ze": 3856,
      "Zm": 3857,
      "ZROT": 3858,
      "[*": 3859,
      "[^": 3860,
      "^)": 3861,
      "^}": 3862,
      "^^,": 3863,
      "aB": 3864,
      "a_": 3865,
      "ail": 3866,
      "aven": 3867,
      "aker": 3868,
      "away": 3869,
      "ainst": 3870,
      "auses": 3871,
      "amazed": 3872,
      "a2x2": 3873,
      "a3x3": 3874,
      "b5": 3875,
      "bar": 3876,
      "bur": 3877,
      "bri": 3878,
      "bits": 3879,
      "bound": 3880,
      "bability": 3881,
      "bene": 3882,
      "bana": 3883,
      "bright": 3884,
      "bination": 3885,
      "cat": 3886,
      "cro": 3887,
      "care": 3888,
      "cus": 3889,
      "cab": 3890,
      "cul": 3891,
      "city": 3892,
      "cut": 3893,
      "cated": 3894,
      "cour": 3895,
      "cue": 3896,
      "cke": 3897,
      "card": 3898,
      "cru": 3899,
      "cular": 3900,
      "culi": 3901,
      "carri": 3902,
      "candidate": 3903,
      "dre": 3904,
      "dan": 3905,
      "dal": 3906,
      "dic": 3907,
      "dle": 3908,
      "dig": 3909,
      "dated": 3910,
      "dition": 3911,
      "dicated": 3912,
      "dicates": 3913,
      "drast": 3914,
      "during": 3915,
      "eb": 3916,
      "eld": 3917,
      "ered": 3918,
      "eren": 3919,
      "ease": 3920,
      "fi": 3921,
      "fu": 3922,
      "fle": 3923,
      "five": 3924,
      "fut": 3925,
      "fred": 3926,
      "ftrans": 3927,
      "fill": 3928,
      "fits": 3929,
      "flow": 3930,
      "ftall": 3931,
      "fically": 3932,
      "flex": 3933,
      "fice": 3934,
      "fending": 3935,
      "fpast": 3936,
      "fanimal": 3937,
      "fron": 3938,
      "ffruit": 3939,
      "gg": 3940,
      "gs": 3941,
      "gan": 3942,
      "gare": 3943,
      "gur": 3944,
      "glo": 3945,
      "gap": 3946,
      "gling": 3947,
      "gments": 3948,
      "glect": 3949,
      "gather": 3950,
      "gmatic": 3951,
      "h2": 3952,
      "ht": 3953,
      "hed": 3954,
      "har": 3955,
      "hol": 3956,
      "hart": 3957,
      "hunt": 3958,
      "ia": 3959,
      "ii": 3960,
      "iver": 3961,
      "ience": 3962,
      "ipe": 3963,
      "ially": 3964,
      "iability": 3965,
      "iet": 3966,
      "iking": 3967,
      "iques": 3968,
      "iences": 3969,
      "jx": 3970,
      "jud": 3971,
      "kow": 3972,
      "kers": 3973,
      "ktop": 3974,
      "la": 3975,
      "ls": 3976,
      "lon": 3977,
      "lor": 3978,
      "lic": 3979,
      "lab": 3980,
      "lap": 3981,
      "lary": 3982,
      "lates": 3983,
      "lDE": 3984,
      "ladv": 3985,
      "leness": 3986,
      "lified": 3987,
      "licates": 3988,
      "laced": 3989,
      "mm": 3990,
      "mbe": 3991,
      "mir": 3992,
      "mess": 3993,
      "mands": 3994,
      "ns": 3995,
      "nx": 3996,
      "nat": 3997,
      "nor": 3998,
      "nar": 3999,
      "nch": 4000,
      "nition": 4001,
      "npr": 4002,
      "ode": 4003,
      "opt": 4004,
      "ograph": 4005,
      "olog": 4006,
      "oten": 4007,
      "oken": 4008,
      "oking": 4009,
      "opa": 4010,
      "omitted": 4011,
      "osi": 4012,
      "open": 4013,
      "option": 4014,
      "osity": 4015,
      "osoph": 4016,
      "o6w": 4017,
      "pin": 4018,
      "pan": 4019,
      "pend": 4020,
      "puter": 4021,
      "pular": 4022,
      "pick": 4023,
      "pipe": 4024,
      "ral": 4025,
      "ring": 4026,
      "rim": 4027,
      "rical": 4028,
      "rass": 4029,
      "rmed": 4030,
      "rise": 4031,
      "sor": 4032,
      "sample": 4033,
      "ske": 4034,
      "sky": 4035,
      "sort": 4036,
      "sors": 4037,
      "s4d": 4038,
      "tu": 4039,
      "tto": 4040,
      "tex": 4041,
      "tun": 4042,
      "tual": 4043,
      "tem": 4044,
      "tist": 4045,
      "tone": 4046,
      "tant": 4047,
      "tory": 4048,
      "tality": 4049,
      "turn": 4050,
      "tise": 4051,
      "tuitive": 4052,
      "tons": 4053,
      "t43": 4054,
      "tps": 4055,
      "trated": 4056,
      "targe": 4057,
      "tential": 4058,
      "truth": 4059,
      "ued": 4060,
      "ues": 4061,
      "udi": 4062,
      "uhe": 4063,
      "uary": 4064,
      "umer": 4065,
      "uential": 4066,
      "vant": 4067,
      "vances": 4068,
      "won": 4069,
      "wat": 4070,
      "war": 4071,
      "wand": 4072,
      "wider": 4073,
      "wold": 4074,
      "x1": 4075,
      "x_": 4076,
      "xn": 4077,
      "xious": 4078,
      "y2": 4079,
      "y3": 4080,
      "yn": 4081,
      "yr": 4082,
      "youn": 4083,
      "your": 4084,
      "yout": 4085,
      "yms": 4086,
      "z3": 4087,
      "zer": 4088,
      "zell": 4089,
      "}*;": 4090,
      "~—": 4091,
      "«-": 4092,
      "«....................": 4093,
      "»’": 4094,
      "àef": 4095,
      "üm": 4096,
      "——": 4097,
      "’’": 4098,
      "”.": 4099,
      "■..": 4100,
      "■«-": 4101,
      "ﬁeld": 4102,
      "ﬁrmed": 4103,
      "ﬂed": 4104,
      "ﬂow": 4105,
      "ﬂect": 4106,
      "thy": 4107,
      "thre": 4108,
      "thing": 4109,
      "thir": 4110,
      "thru": 4111,
      "..--": 4112,
      "inate": 4113,
      "inci": 4114,
      "invis": 4115,
      "inability": 4116,
      "instruct": 4117,
      "inau": 4118,
      "infl": 4119,
      "incomplete": 4120,
      "infer": 4121,
      "inspected": 4122,
      "intransitive": 4123,
      "inflex": 4124,
      "reen": 4125,
      "rele": 4126,
      "reco": 4127,
      "repre": 4128,
      "ress": 4129,
      "reser": 4130,
      "revis": 4131,
      "repe": 4132,
      "reaction": 4133,
      "restate": 4134,
      "rections": 4135,
      "reconstruct": 4136,
      "referent": 4137,
      "ream": 4138,
      "reproduce": 4139,
      "resolve": 4140,
      "refer": 4141,
      "remember": 4142,
      "reproduced": 4143,
      "reply": 4144,
      "retains": 4145,
      "reported": 4146,
      "theories": 4147,
      "onents": 4148,
      "onograph": 4149,
      "antic": 4150,
      "anks": 4151,
      "ancy": 4152,
      "angr": 4153,
      "anxious": 4154,
      "ator": 4155,
      "atitu": 4156,
      "atGPT": 4157,
      "ora": 4158,
      "orous": 4159,
      "organ": 4160,
      "enon": 4161,
      "ensive": 4162,
      "enom": 4163,
      "envision": 4164,
      "encode": 4165,
      "encoding": 4166,
      "enumer": 4167,
      "erated": 4168,
      "erature": 4169,
      "erative": 4170,
      "eried": 4171,
      "erized": 4172,
      "erness": 4173,
      "ercial": 4174,
      "eria": 4175,
      "isal": 4176,
      "ising": 4177,
      "isive": 4178,
      "isition": 4179,
      "isode": 4180,
      "iswold": 4181,
      "aled": 4182,
      "alle": 4183,
      "ales": 4184,
      "alge": 4185,
      "altern": 4186,
      "alog": 4187,
      "alysis": 4188,
      "alway": 4189,
      "align": 4190,
      "altered": 4191,
      "educ": 4192,
      "edible": 4193,
      "edom": 4194,
      "ionally": 4195,
      "offers": 4196,
      "offending": 4197,
      "cep": 4198,
      "cely": 4199,
      "cember": 4200,
      "too": 4201,
      "tour": 4202,
      "toge": 4203,
      "toward": 4204,
      "tomary": 4205,
      "tober": 4206,
      "today": 4207,
      "totyping": 4208,
      "totality": 4209,
      "cted": 4210,
      "ctically": 4211,
      "ctice": 4212,
      "itz": 4213,
      "iting": 4214,
      "itation": 4215,
      "ites": 4216,
      "itate": 4217,
      "itial": 4218,
      "itant": 4219,
      "itious": 4220,
      "itarian": 4221,
      "iterative": 4222,
      "star": 4223,
      "stes": 4224,
      "stil": 4225,
      "stun": 4226,
      "stated": 4227,
      "start": 4228,
      "stream": 4229,
      "ica": 4230,
      "icit": 4231,
      "icag": 4232,
      "icial": 4233,
      "icating": 4234,
      "ician": 4235,
      "icitly": 4236,
      "ars": 4237,
      "arse": 4238,
      "artic": 4239,
      "arithmetic": 4240,
      "deed": 4241,
      "dele": 4242,
      "desp": 4243,
      "deci": 4244,
      "deta": 4245,
      "declar": 4246,
      "defici": 4247,
      "debu": 4248,
      "devo": 4249,
      "ased": 4250,
      "asking": 4251,
      "assemb": 4252,
      "asked": 4253,
      "sey": 4254,
      "seed": 4255,
      "sees": 4256,
      "seven": 4257,
      "sections": 4258,
      "select": 4259,
      "second": 4260,
      "seminal": 4261,
      "segments": 4262,
      "..........": 4263,
      "vered": 4264,
      "veys": 4265,
      "oup": 4266,
      "oura": 4267,
      "oull": 4268,
      "lead": 4269,
      "bear": 4270,
      "beca": 4271,
      "behind": 4272,
      "beside": 4273,
      "enty": 4274,
      "ented": 4275,
      "ently": 4276,
      "entif": 4277,
      "entering": 4278,
      "rogative": 4279,
      "fortun": 4280,
      "imag": 4281,
      "impor": 4282,
      "imposed": 4283,
      "imax": 4284,
      "impressed": 4285,
      "ches": 4286,
      "chem": 4287,
      "chap": 4288,
      "charge": 4289,
      "child": 4290,
      "constr": 4291,
      "conta": 4292,
      "concre": 4293,
      "confir": 4294,
      "concer": 4295,
      "configure": 4296,
      "conceived": 4297,
      "contemporary": 4298,
      "conﬁrmed": 4299,
      "concep": 4300,
      "contour": 4301,
      "lyn": 4302,
      "lying": 4303,
      "lyhed": 4304,
      "cos": 4305,
      "coeffici": 4306,
      "covered": 4307,
      "essent": 4308,
      "essing": 4309,
      "Three": 4310,
      "Thanks": 4311,
      "mold": 4312,
      "modality": 4313,
      "ray": 4314,
      "raph": 4315,
      "raisal": 4316,
      "racted": 4317,
      "sue": 4318,
      "sumed": 4319,
      "suspected": 4320,
      "worthy": 4321,
      "spent": 4322,
      "splic": 4323,
      "spoken": 4324,
      "sparse": 4325,
      "striking": 4326,
      "terance": 4327,
      "forms": 4328,
      "forming": 4329,
      "map": 4330,
      "mathe": 4331,
      "mapp": 4332,
      "exit": 4333,
      "except": 4334,
      "expos": 4335,
      "exclu": 4336,
      "experim": 4337,
      "exemp": 4338,
      "exception": 4339,
      "explan": 4340,
      "mption": 4341,
      "mposi": 4342,
      "prove": 4343,
      "proper": 4344,
      "proving": 4345,
      "proced": 4346,
      "promis": 4347,
      "proxim": 4348,
      "propose": 4349,
      "proposes": 4350,
      "probability": 4351,
      "procity": 4352,
      "prototyping": 4353,
      "ows": 4354,
      "whichever": 4355,
      "ils": 4356,
      "ilosoph": 4357,
      "ilitate": 4358,
      "illyn": 4359,
      "pture": 4360,
      "ptem": 4361,
      "pticism": 4362,
      "Their": 4363,
      "verti": 4364,
      "verge": 4365,
      "verif": 4366,
      "versed": 4367,
      "verned": 4368,
      "vertex": 4369,
      "sentation": 4370,
      "sionality": 4371,
      "agno": 4372,
      "against": 4373,
      "agues": 4374,
      "agraph": 4375,
      "byte": 4376,
      "nological": 4377,
      "nominal": 4378,
      "uctio": 4379,
      "arer": 4380,
      "areas": 4381,
      "soon": 4382,
      "soci": 4383,
      "quite": 4384,
      "queried": 4385,
      "quisition": 4386,
      "abase": 4387,
      "absur": 4388,
      "ableness": 4389,
      "RECT": 4390,
      "RESI": 4391,
      "RECE": 4392,
      "REST": 4393,
      "addi": 4394,
      "adverbs": 4395,
      "adopt": 4396,
      "urred": 4397,
      "urally": 4398,
      "uristic": 4399,
      "urring": 4400,
      "polation": 4401,
      "pothesis": 4402,
      "popular": 4403,
      "potential": 4404,
      "polyhed": 4405,
      "few": 4406,
      "fered": 4407,
      "undefined": 4408,
      "unnecessary": 4409,
      "unortho": 4410,
      "uncer": 4411,
      "unpleasant": 4412,
      "unmoved": 4413,
      "unclear": 4414,
      "unambiguous": 4415,
      "unexpected": 4416,
      "unica": 4417,
      "division": 4418,
      "dibility": 4419,
      "directions": 4420,
      "diverge": 4421,
      "premulti": 4422,
      "preclu": 4423,
      "preposition": 4424,
      "precis": 4425,
      "predic": 4426,
      "presumed": 4427,
      "ulary": 4428,
      "range": 4429,
      "ranked": 4430,
      "atest": 4431,
      "parti": 4432,
      "partial": 4433,
      "paralle": 4434,
      "paragraph": 4435,
      "sys": 4436,
      "synon": 4437,
      "synch": 4438,
      "utable": 4439,
      "utility": 4440,
      "utterance": 4441,
      "Incorrect": 4442,
      "Intern": 4443,
      "Indifferent": 4444,
      "Inclusion": 4445,
      "Insight": 4446,
      "Instead": 4447,
      "Intuitive": 4448,
      "Initial": 4449,
      "Indeed": 4450,
      "ssed": 4451,
      "deliver": 4452,
      "ciative": 4453,
      "cifically": 4454,
      "ciprocity": 4455,
      "embar": 4456,
      "permitted": 4457,
      "permis": 4458,
      "perspect": 4459,
      "perience": 4460,
      "compu": 4461,
      "compli": 4462,
      "compared": 4463,
      "compounded": 4464,
      "complicates": 4465,
      "comprise": 4466,
      "fine": 4467,
      "fined": 4468,
      "finish": 4469,
      "finally": 4470,
      "dimensioned": 4471,
      "ried": 4472,
      "riev": 4473,
      "ribut": 4474,
      "CTRI": 4475,
      "hael": 4476,
      "isting": 4477,
      "istication": 4478,
      "istant": 4479,
      "istically": 4480,
      "istinct": 4481,
      "teach": 4482,
      "tell": 4483,
      "tears": 4484,
      "ODBY": 4485,
      "derive": 4486,
      "derous": 4487,
      "derisive": 4488,
      "taint": 4489,
      "take": 4490,
      "taking": 4491,
      "tastes": 4492,
      "neural": 4493,
      "nets": 4494,
      "negative": 4495,
      "neglect": 4496,
      "weaker": 4497,
      "vectorially": 4498,
      "guide": 4499,
      "guages": 4500,
      "guessing": 4501,
      "phonograph": 4502,
      "phenom": 4503,
      "reductio": 4504,
      "lomer": 4505,
      "look": 4506,
      "loadings": 4507,
      "logies": 4508,
      "looking": 4509,
      "manent": 4510,
      "manual": 4511,
      "ENCE": 4512,
      "ENGIN": 4513,
      "mented": 4514,
      "mentation": 4515,
      "placed": 4516,
      "grammat": 4517,
      "transi": 4518,
      "translation": 4519,
      "translational": 4520,
      "translates": 4521,
      "notion": 4522,
      "RALE": 4523,
      "RADI": 4524,
      "RAFFE": 4525,
      "useful": 4526,
      "useless": 4527,
      "lance": 4528,
      "defining": 4529,
      "defines": 4530,
      "tied": 4531,
      "tide": 4532,
      "ties": 4533,
      ",,,»": 4534,
      "irmation": 4535,
      "subtree": 4536,
      "sublist": 4537,
      "subnetworks": 4538,
      "submissive": 4539,
      "subroutine": 4540,
      "acy": 4541,
      "acing": 4542,
      "acity": 4543,
      "access": 4544,
      "accoun": 4545,
      "accordingly": 4546,
      "acquisition": 4547,
      "via": 4548,
      "vially": 4549,
      "ONE": 4550,
      "ONLY": 4551,
      "ATENESS": 4552,
      "ATIVE": 4553,
      "ATTEM": 4554,
      "basing": 4555,
      "illus": 4556,
      "193": 4557,
      "1945": 4558,
      "1967": 4559,
      "1957": 4560,
      "1964": 4561,
      "1968": 4562,
      "19b5": 4563,
      "cessful": 4564,
      "applic": 4565,
      "ples": 4566,
      "please": 4567,
      "pleteness": 4568,
      "rendering": 4569,
      "THIS": 4570,
      "minded": 4571,
      "minimal": 4572,
      "intend": 4573,
      "-,-,": 4574,
      "ears": 4575,
      "wasn": 4576,
      "RCE": 4577,
      "curved": 4578,
      "curio": 4579,
      "tics": 4580,
      "tically": 4581,
      "BOTTO": 4582,
      "shallow": 4583,
      "shold": 4584,
      "shared": 4585,
      "ERTATION": 4586,
      "MODAL": 4587,
      "link": 4588,
      "linking": 4589,
      "archy": 4590,
      "obtain": 4591,
      "oblit": 4592,
      "programming": 4593,
      "corner": 4594,
      "corres": 4595,
      "disallow": 4596,
      "dismissive": 4597,
      "discovered": 4598,
      "dification": 4599,
      "differ": 4600,
      "differed": 4601,
      "PASTRA": 4602,
      "contrast": 4603,
      "contracted": 4604,
      "allowing": 4605,
      "endly": 4606,
      "ources": 4607,
      "ALGO": 4608,
      "timod": 4609,
      "coming": 4610,
      "comments": 4611,
      "speed": 4612,
      "specul": 4613,
      "understo": 4614,
      "undertook": 4615,
      "underpin": 4616,
      "hasis": 4617,
      "multimod": 4618,
      "representable": 4619,
      "representations": 4620,
      "outside": 4621,
      "worked": 4622,
      "ables": 4623,
      "screen": 4624,
      "addresses": 4625,
      "address": 4626,
      "conceptually": 4627,
      "multiplic": 4628,
      "held": 4629,
      "heuristic": 4630,
      "acted": 4631,
      "acters": 4632,
      "acterized": 4633,
      "get": 4634,
      "gest": 4635,
      "visiting": 4636,
      "rected": 4637,
      "rectang": 4638,
      "..........................................": 4639,
      "quiet": 4640,
      "THEME": 4641,
      "hier": 4642,
      "pefully": 4643,
      "peculi": 4644,
      "extra": 4645,
      "extensive": 4646,
      "caused": 4647,
      "causing": 4648,
      "capture": 4649,
      "clauses": 4650,
      "termination": 4651,
      "terminated": 4652,
      "terminates": 4653,
      "pointed": 4654,
      "parsings": 4655,
      "nicely": 4656,
      "processor": 4657,
      "ANT": 4658,
      "ANING": 4659,
      "ANGLE": 4660,
      "understandable": 4661,
      "States": 4662,
      "Start": 4663,
      "Studi": 4664,
      "generation": 4665,
      "generality": 4666,
      "generosity": 4667,
      "associate": 4668,
      "event": 4669,
      "events": 4670,
      "opera": 4671,
      "operate": 4672,
      "operational": 4673,
      "operands": 4674,
      "uced": 4675,
      "...]": 4676,
      "region": 4677,
      "regions": 4678,
      "regard": 4679,
      "regret": 4680,
      "graphical": 4681,
      "commonly": 4682,
      "commercial": 4683,
      "nounness": 4684,
      "tionship": 4685,
      "upper": 4686,
      "updated": 4687,
      "depending": 4688,
      "SSURE": 4689,
      "SSQUARE": 4690,
      "SSERTATION": 4691,
      "database": 4692,
      "numer": 4693,
      "numbe": 4694,
      "settle": 4695,
      "Were": 4696,
      "rela": 4697,
      "relates": 4698,
      "relations": 4699,
      "relie": 4700,
      "reliability": 4701,
      "100": 4702,
      "boy": 4703,
      "body": 4704,
      "botto": 4705,
      "ifi": 4706,
      "ify": 4707,
      "semantics": 4708,
      "ACTLY": 4709,
      "ACTANT": 4710,
      "DEPAR": 4711,
      "giving": 4712,
      "lowered": 4713,
      "containing": 4714,
      "existed": 4715,
      "OFIL": 4716,
      "dox": 4717,
      "mark": 4718,
      "mars": 4719,
      "marking": 4720,
      "married": 4721,
      "tational": 4722,
      "tworks": 4723,
      "interaction": 4724,
      "intermedi": 4725,
      "intersection": 4726,
      "interior": 4727,
      "interfaced": 4728,
      "interlaced": 4729,
      "interrogative": 4730,
      "interpolation": 4731,
      "interrelations": 4732,
      "assure": 4733,
      "specific": 4734,
      "visually": 4735,
      "visualize": 4736,
      "Refle": 4737,
      "Return": 4738,
      "Reﬂect": 4739,
      "Reciprocity": 4740,
      "Revisiting": 4741,
      "Retworks": 4742,
      "surround": 4743,
      "partly": 4744,
      "computers": 4745,
      "113": 4746,
      "116": 4747,
      "1111": 4748,
      "1112": 4749,
      "Encoded": 4750,
      "Entri": 4751,
      "TOLD": 4752,
      "saw": 4753,
      "save": 4754,
      "indication": 4755,
      "indistinct": 4756,
      "induced": 4757,
      "searched": 4758,
      "searches": 4759,
      "posi": 4760,
      "posits": 4761,
      "positive": 4762,
      "posites": 4763,
      "Cool": 4764,
      "Cogn": 4765,
      "Coordin": 4766,
      "Comm": 4767,
      "clearly": 4768,
      "clearer": 4769,
      "colum": 4770,
      "requirement": 4771,
      "requirements": 4772,
      "Park": 4773,
      "TEENS": 4774,
      "aste": 4775,
      "asteris": 4776,
      "locally": 4777,
      "locations": 4778,
      "Engine": 4779,
      "England": 4780,
      "167": 4781,
      "168": 4782,
      "OKING": 4783,
      "tward": 4784,
      "twenty": 4785,
      "formalize": 4786,
      "Del": 4787,
      "Degree": 4788,
      "December": 4789,
      "ecution": 4790,
      "fulfill": 4791,
      "tened": 4792,
      "descending": 4793,
      "technological": 4794,
      "INFORM": 4795,
      "INPUT": 4796,
      "ipated": 4797,
      "completed": 4798,
      "completeness": 4799,
      "120": 4800,
      "12th": 4801,
      "Arithmetic": 4802,
      "Artist": 4803,
      "BLUER": 4804,
      "buttons": 4805,
      "creates": 4806,
      "credibility": 4807,
      "eting": 4808,
      "lived": 4809,
      "sensors": 4810,
      "resumed": 4811,
      "resumes": 4812,
      "levels": 4813,
      "solving": 4814,
      "circular": 4815,
      "typified": 4816,
      "Compound": 4817,
      "Complicated": 4818,
      "AREN": 4819,
      "black": 4820,
      "blurred": 4821,
      "duck": 4822,
      "inverses": 4823,
      "realm": 4824,
      "reality": 4825,
      "realized": 4826,
      "realistic": 4827,
      "realistically": 4828,
      "anyway": 4829,
      "anything": 4830,
      "determining": 4831,
      "determination": 4832,
      "deterministic": 4833,
      "REDDER": 4834,
      "syntac": 4835,
      "syntax": 4836,
      "syntactically": 4837,
      "multidimensionally": 4838,
      "primary": 4839,
      "responding": 4840,
      "responsi": 4841,
      "responsible": 4842,
      "SQUABE": 4843,
      "rule": 4844,
      "rougher": 4845,
      "roughtly": 4846,
      "chose": 4847,
      "happy": 4848,
      "happen": 4849,
      "newer": 4850,
      "contexts": 4851,
      "contextual": 4852,
      "implements": 4853,
      "implementable": 4854,
      "resulted": 4855,
      "inversely": 4856,
      "MOOD": 4857,
      "NOTE": 4858,
      "NOUS": 4859,
      "NOWLED": 4860,
      "favo": 4861,
      "facial": 4862,
      "greatest": 4863,
      "thoughts": 4864,
      "erarchical": 4865,
      "desktop": 4866,
      "sequen": 4867,
      "whereas": 4868,
      "whereupon": 4869,
      "transforma": 4870,
      "viously": 4871,
      "colors": 4872,
      "300": 4873,
      "301": 4874,
      "Analysis": 4875,
      "Associ": 4876,
      "Extension": 4877,
      "Extend": 4878,
      "Expressed": 4879,
      "Extensive": 4880,
      "Experience": 4881,
      "Existing": 4882,
      "Execution": 4883,
      "More": 4884,
      "Most": 4885,
      "Moved": 4886,
      "Mood": 4887,
      "Motiv": 4888,
      "Modality": 4889,
      "Modal": 4890,
      "Mozell": 4891,
      "Modification": 4892,
      "SHRDLU": 4893,
      "VED": 4894,
      "foundational": 4895,
      "merge": 4896,
      "prior": 4897,
      "retriev": 4898,
      "mainframe": 4899,
      "maintaining": 4900,
      "mainstream": 4901,
      "ilarly": 4902,
      "directing": 4903,
      "phological": 4904,
      "discrim": 4905,
      "discoura": 4906,
      "LOCUS": 4907,
      "hierarchically": 4908,
      "followed": 4909,
      "APPRO": 4910,
      "APPLE": 4911,
      "augment": 4912,
      "functions": 4913,
      "functionally": 4914,
      "rows": 4915,
      "cognitive": 4916,
      "mostly": 4917,
      "whenever": 4918,
      "adjust": 4919,
      "ESSENCE": 4920,
      "similarity": 4921,
      "140": 4922,
      "174": 4923,
      "ASPECT": 4924,
      "FORD": 4925,
      "FORTRAN": 4926,
      "MED": 4927,
      "METERS": 4928,
      "MEANING": 4929,
      "hopefully": 4930,
      "humor": 4931,
      "iest": 4932,
      "smallness": 4933,
      "variation": 4934,
      "variables": 4935,
      "initron": 4936,
      "independently": 4937,
      "implicitly": 4938,
      "strategy": 4939,
      "quali": 4940,
      "qualified": 4941,
      "qualify": 4942,
      "possibility": 4943,
      "apply": 4944,
      "appraisal": 4945,
      "communi": 4946,
      "community": 4947,
      "communicate": 4948,
      "communicating": 4949,
      "returns": 4950,
      "returning": 4951,
      "GOAL": 4952,
      "GOODBY": 4953,
      "cycle": 4954,
      "capital": 4955,
      "capacity": 4956,
      "dum": 4957,
      "duplic": 4958,
      "easiest": 4959,
      "fourth": 4960,
      "leftward": 4961,
      "exponents": 4962,
      "providing": 4963,
      "divided": 4964,
      "computa": 4965,
      "computing": 4966,
      "controls": 4967,
      "155": 4968,
      "187": 4969,
      "2024": 4970,
      "222": 4971,
      "BEEN": 4972,
      "BECA": 4973,
      "DISSERTATION": 4974,
      "Too": 4975,
      "Today": 4976,
      "going": 4977,
      "governed": 4978,
      "involving": 4979,
      "removes": 4980,
      "ceeded": 4981,
      "execute": 4982,
      "temperature": 4983,
      "viewer": 4984,
      "viewed": 4985,
      "viewpoint": 4986,
      "scalable": 4987,
      "classical": 4988,
      "classifi": 4989,
      "evolve": 4990,
      "appropriately": 4991,
      "successive": 4992,
      "answers": 4993,
      "GREENNESS": 4994,
      "restriction": 4995,
      "reasonableness": 4996,
      "350": 4997,
      "459": 4998,
      "HELL": 4999,
      "Joint": 5000,
      "Newman": 5001,
      "SEE": 5002,
      "SPICY": 5003,
      "Unlike": 5004,
      "United": 5005,
      "Unpleasant": 5006,
      "Unpublished": 5007,
      "Unfortun": 5008,
      "grounded": 5009,
      "gratitu": 5010,
      "group": 5011,
      "hender": 5012,
      "normative": 5013,
      "channels": 5014,
      "interpreted": 5015,
      "interprets": 5016,
      "portunity": 5017,
      "portray": 5018,
      "positional": 5019,
      "Transformational": 5020,
      "completely": 5021,
      "failed": 5022,
      "Matrices": 5023,
      "Philosoph": 5024,
      "Poage": 5025,
      "Quest": 5026,
      "effectively": 5027,
      "limits": 5028,
      "limitation": 5029,
      "overt": 5030,
      "overlap": 5031,
      "shades": 5032,
      "trol": 5033,
      "textual": 5034,
      "writing": 5035,
      "referenced": 5036,
      "animated": 5037,
      "ENSITY": 5038,
      "substrings": 5039,
      "accepts": 5040,
      "introducing": 5041,
      "MODIFIER": 5042,
      "Architecture": 5043,
      "easier": 5044,
      "incorporates": 5045,
      "incorporating": 5046,
      "248": 5047,
      "Author": 5048,
      "Automat": 5049,
      "CHOCO": 5050,
      "FIRST": 5051,
      "Graduate": 5052,
      "Lancast": 5053,
      "ProQuest": 5054,
      "PRESSURE": 5055,
      "facilitate": 5056,
      "gerous": 5057,
      "missing": 5058,
      "instances": 5059,
      "reader": 5060,
      "remainder": 5061,
      "assumption": 5062,
      "finds": 5063,
      "tested": 5064,
      "ATNs": 5065,
      "apples": 5066,
      "modifications": 5067,
      "collections": 5068,
      "colleagues": 5069,
      "consists": 5070,
      "consisted": 5071,
      "consisting": 5072,
      "consistency": 5073,
      "consistently": 5074,
      "appears": 5075,
      "appearing": 5076,
      "idiomatic": 5077,
      "continuing": 5078,
      "continues": 5079,
      "continuity": 5080,
      "continuous": 5081,
      "continuum": 5082,
      "interpretations": 5083,
      "Polygonal": 5084,
      "yielding": 5085,
      "295": 5086,
      "32K": 5087,
      "CRM": 5088,
      "CROFIL": 5089,
      "CONE": 5090,
      "CONTENT": 5091,
      "Friendly": 5092,
      "FAILED": 5093,
      "Nodes": 5094,
      "Notice": 5095,
      "Princi": 5096,
      "Symposi": 5097,
      "Technology": 5098,
      "Verb": 5099,
      "Vision": 5100,
      "WITH": 5101,
      "born": 5102,
      "distresses": 5103,
      "distribut": 5104,
      "distaste": 5105,
      "purple": 5106,
      "pursuit": 5107,
      "purposes": 5108,
      "pursue": 5109,
      "trees": 5110,
      "include": 5111,
      "inclusion": 5112,
      "topic": 5113,
      "argued": 5114,
      "lecture": 5115,
      "check": 5116,
      "checks": 5117,
      "converters": 5118,
      "suffers": 5119,
      "suffer": 5120,
      "suffice": 5121,
      "explicit": 5122,
      "..........................": 5123,
      "agrees": 5124,
      "subjects": 5125,
      "shows": 5126,
      "showing": 5127,
      "difficulty": 5128,
      "speaking": 5129,
      "speakers": 5130,
      "heads": 5131,
      "possessed": 5132,
      "considering": 5133,
      "evolutionary": 5134,
      "successfully": 5135,
      "normalized": 5136,
      "normalization": 5137,
      "(-),": 5138,
      "Addition": 5139,
      "Admir": 5140,
      "Advances": 5141,
      "Attension": 5142,
      "Both": 5143,
      "EET": 5144,
      "GEMENT": 5145,
      "QuO": 5146,
      "Quiet": 5147,
      "Social": 5148,
      "Similarly": 5149,
      "UNDEFINED": 5150,
      "USAL": 5151,
      "USERS": 5152,
      "VNJ": 5153,
      "affects": 5154,
      "affecting": 5155,
      "afterward": 5156,
      "central": 5157,
      "elicit": 5158,
      "equally": 5159,
      "equations": 5160,
      "forever": 5161,
      "foreshad": 5162,
      "lacking": 5163,
      "microf": 5164,
      "trivially": 5165,
      "incorrectly": 5166,
      "reside": 5167,
      "resources": 5168,
      "replaced": 5169,
      "rejection": 5170,
      "researchers": 5171,
      "thematics": 5172,
      "onsky": 5173,
      "topologies": 5174,
      "stered": 5175,
      "arises": 5176,
      "decimal": 5177,
      "entirely": 5178,
      "combine": 5179,
      "combination": 5180,
      "machines": 5181,
      "exhibits": 5182,
      "examine": 5183,
      "examination": 5184,
      "outputting": 5185,
      "..................................................": 5186,
      ".............................................": 5187,
      "extensions": 5188,
      "approaching": 5189,
      "approaches": 5190,
      "succeeded": 5191,
      "ACKNOWLED": 5192,
      "______": 5193,
      "________": 5194,
      "executes": 5195,
      "building": 5196,
      "anomaly": 5197,
      "havioral": 5198,
      "#>)": 5199,
      "#>,": 5200,
      "480": 5201,
      ":-/$": 5202,
      ":-/).": 5203,
      "Dissertation": 5204,
      "Disposi": 5205,
      "Finally": 5206,
      "Meeting": 5207,
      "Marbur": 5208,
      "Margare": 5209,
      "Marillyn": 5210,
      "MANY": 5211,
      "MANNER": 5212,
      "Obviously": 5213,
      "STRING": 5214,
      "STUDENT": 5215,
      "Specifically": 5216,
      "VTl": 5217,
      "Withdrawing": 5218,
      "avail": 5219,
      "ambition": 5220,
      "ambitious": 5221,
      "brain": 5222,
      "brains": 5223,
      "bracke": 5224,
      "emphasis": 5225,
      "hypothesis": 5226,
      "ponse": 5227,
      "ponding": 5228,
      "ponderous": 5229,
      "runs": 5230,
      "rightward": 5231,
      "slid": 5232,
      "slurring": 5233,
      "track": 5234,
      "traversed": 5235,
      "voice": 5236,
      "vocab": 5237,
      "increase": 5238,
      "increases": 5239,
      "reaches": 5240,
      "angles": 5241,
      "errors": 5242,
      "belonging": 5243,
      "membership": 5244,
      "mathematics": 5245,
      "mathematically": 5246,
      "projects": 5247,
      "projection": 5248,
      "projections": 5249,
      "versions": 5250,
      "unipolar": 5251,
      "pressure": 5252,
      "comprehender": 5253,
      "compiler": 5254,
      "telecommunication": 5255,
      "reducing": 5256,
      "intentionally": 5257,
      "observer": 5258,
      "observing": 5259,
      "multiplications": 5260,
      "modifier": 5261,
      "DEFINATENESS": 5262,
      "questionable": 5263,
      "assigned": 5264,
      "assigning": 5265,
      "assignment": 5266,
      ",,,,,,,,,)": 5267,
      "COMPON": 5268,
      "factors": 5269,
      "factory": 5270,
      "greenness": 5271,
      "efficient": 5272,
      "expanding": 5273,
      "expandable": 5274,
      "scalars": 5275,
      "animals": 5276,
      "Technician": 5277,
      "certainly": 5278,
      "(+),": 5279,
      "591": 5280,
      "Approxim": 5281,
      "BYE": 5282,
      "Behavioral": 5283,
      "BERT": 5284,
      "BITTER": 5285,
      "CSc": 5286,
      "China": 5287,
      "ChatGPT": 5288,
      "Chicag": 5289,
      "HOW": 5290,
      "LARGER": 5291,
      "Prepositional": 5292,
      "Road": 5293,
      "SAVE": 5294,
      "Wooten": 5295,
      "Word2V": 5296,
      "XROTATE": 5297,
      "YROTATE": 5298,
      "axis": 5299,
      "biolog": 5300,
      "blank": 5301,
      "criticism": 5302,
      "critiques": 5303,
      "criteria": 5304,
      "fastest": 5305,
      "gives": 5306,
      "grows": 5307,
      "herst": 5308,
      "histories": 5309,
      "heart": 5310,
      "hearing": 5311,
      "heartened": 5312,
      "middle": 5313,
      "occurs": 5314,
      "occurred": 5315,
      "passive": 5316,
      "passage": 5317,
      "psychological": 5318,
      "ronized": 5319,
      "routines": 5320,
      "sists": 5321,
      "sistent": 5322,
      "sistency": 5323,
      "talk": 5324,
      "tives": 5325,
      "inspection": 5326,
      "resolved": 5327,
      "resolving": 5328,
      "resolution": 5329,
      "attrib": 5330,
      "oriented": 5331,
      "issues": 5332,
      "touching": 5333,
      "study": 5334,
      "student": 5335,
      "studying": 5336,
      "belief": 5337,
      "robot": 5338,
      "robots": 5339,
      "robotics": 5340,
      "whose": 5341,
      "whole": 5342,
      "support": 5343,
      "suppose": 5344,
      "supported": 5345,
      "......................": 5346,
      "agglomer": 5347,
      "composed": 5348,
      "comparisons": 5349,
      "phrased": 5350,
      "manipulated": 5351,
      "planted": 5352,
      "plays": 5353,
      "transmitting": 5354,
      "achieve": 5355,
      "shortcoming": 5356,
      "1970s": 5357,
      "actuality": 5358,
      "evaluation": 5359,
      "keyword": 5360,
      "Registers": 5361,
      "approximates": 5362,
      "Computing": 5363,
      "maintained": 5364,
      "automata": 5365,
      "integrated": 5366,
      "effort": 5367,
      "illustrations": 5368,
      "temporal": 5369,
      "-----": 5370,
      "---------": 5371,
      "recognizer": 5372,
      "recognizes": 5373,
      "recognizers": 5374,
      "connects": 5375,
      "insures": 5376,
      "Submatrix": 5377,
      "combinator": 5378,
      "hypersolids": 5379,
      "uniquely": 5380,
      "Linguistic": 5381,
      "equivalence": 5382,
      "smells": 5383,
      "signifi": 5384,
      "methods": 5385,
      "6o6": 5386,
      "According": 5387,
      "Accordingly": 5388,
      "CAUSAL": 5389,
      "Closing": 5390,
      "Closed": 5391,
      "EXECU": 5392,
      "EXACTLY": 5393,
      "Groups": 5394,
      "Griswold": 5395,
      "IVED": 5396,
      "Kaplan": 5397,
      "MICROFIL": 5398,
      "Machine": 5399,
      "Machines": 5400,
      "Order": 5401,
      "Original": 5402,
      "Otherwise": 5403,
      "PLEASE": 5404,
      "Polaris": 5405,
      "Polonsky": 5406,
      "RID": 5407,
      "Scene": 5408,
      "Scales": 5409,
      "Second": 5410,
      "Septem": 5411,
      "SOUR": 5412,
      "SOURCE": 5413,
      "TENTH": 5414,
      "TENSE": 5415,
      "bandwidth": 5416,
      "elimination": 5417,
      "eliminate": 5418,
      "food": 5419,
      "fostered": 5420,
      "frey": 5421,
      "freedom": 5422,
      "handle": 5423,
      "hindsight": 5424,
      "ivity": 5425,
      "morphological": 5426,
      "opposites": 5427,
      "opportunity": 5428,
      "plying": 5429,
      "pragmatic": 5430,
      "practice": 5431,
      "rigid": 5432,
      "rigorous": 5433,
      "sounds": 5434,
      "signaled": 5435,
      "switching": 5436,
      "switches": 5437,
      "title": 5438,
      "titled": 5439,
      "www": 5440,
      "■*-": 5441,
      "inﬂuenced": 5442,
      "inﬂuential": 5443,
      "insertion": 5444,
      "inserts": 5445,
      "inferences": 5446,
      "inferential": 5447,
      "reformats": 5448,
      "reformatted": 5449,
      "resembling": 5450,
      "resemblance": 5451,
      "reflecting": 5452,
      "attaching": 5453,
      "attached": 5454,
      "environ": 5455,
      "environment": 5456,
      "islands": 5457,
      "arrived": 5458,
      "decomposing": 5459,
      "decomposes": 5460,
      "separate": 5461,
      "separately": 5462,
      "behaves": 5463,
      "immediate": 5464,
      "immediately": 5465,
      "characters": 5466,
      "conversational": 5467,
      "conversations": 5468,
      "movie": 5469,
      "movies": 5470,
      "strongly": 5471,
      "measures": 5472,
      "experiences": 5473,
      "expertise": 5474,
      "sophistication": 5475,
      "quanta": 5476,
      "quanti": 5477,
      "pointers": 5478,
      "feasible": 5479,
      "feasibility": 5480,
      "didn": 5481,
      "Interaction": 5482,
      "nevertheless": 5483,
      "weighted": 5484,
      "weighting": 5485,
      "redundant": 5486,
      "redundancy": 5487,
      "sheet": 5488,
      "shaded": 5489,
      "outlined": 5490,
      "outlining": 5491,
      "herein": 5492,
      "keeps": 5493,
      "keeping": 5494,
      "Control": 5495,
      "Controlled": 5496,
      "interacting": 5497,
      "interactivity": 5498,
      "Recently": 5499,
      "prints": 5500,
      "pronounced": 5501,
      "TEMPERA": 5502,
      "validation": 5503,
      "validity": 5504,
      "INTENSITY": 5505,
      "cancelled": 5506,
      "choose": 5507,
      "choosing": 5508,
      "designed": 5509,
      "phosphor": 5510,
      "phosphors": 5511,
      "apparent": 5512,
      "apparently": 5513,
      "explore": 5514,
      "explosion": 5515,
      "computationally": 5516,
      "Unrestricted": 5517,
      "Unrestrictive": 5518,
      "flavor": 5519,
      "flavors": 5520,
      "kernels": 5521,
      "inadequate": 5522,
      "inadequacy": 5523,
      "PUTRID": 5524,
      "Programs": 5525,
      "Programming": 5526,
      "SUBJECT": 5527,
      "treatment": 5528,
      "conditions": 5529,
      "Booth": 5530,
      "Books": 5531,
      "engineer": 5532,
      "utilizing": 5533,
      "utilizes": 5534,
      "correspondence": 5535,
      "Applications": 5536,
      "HOTTER": 5537,
      "established": 5538,
      "attributed": 5539,
      "attributes": 5540,
      "aggregation": 5541,
      "aggregate": 5542,
      "Subsequently": 5543,
      "satisfy": 5544,
      "satisfied": 5545,
      "(*)": 5546,
      "(\"+\"": 5547,
      "++/": 5548,
      ".|>.": 5549,
      "/.../": 5550,
      "2nd": 5551,
      "3rd": 5552,
      "3xi": 5553,
      "3Î1112": 5554,
      "4x4": 5555,
      ">»,,,»": 5556,
      "Amherst": 5557,
      "Assistant": 5558,
      "ABOVE": 5559,
      "ASSOCI": 5560,
      "Accurate": 5561,
      "Abandonment": 5562,
      "BIOGRA": 5563,
      "BURNED": 5564,
      "BZo6w": 5565,
      "Berkow": 5566,
      "Bedford": 5567,
      "CLIP": 5568,
      "Center": 5569,
      "CREAM": 5570,
      "Clowes": 5571,
      "Castagno": 5572,
      "Critical": 5573,
      "CHEESE": 5574,
      "Clearly": 5575,
      "CENTER": 5576,
      "Directed": 5577,
      "Doctor": 5578,
      "DREW": 5579,
      "Depending": 5580,
      "Dewar": 5581,
      "David": 5582,
      "Derisive": 5583,
      "EVOKING": 5584,
      "Episode": 5585,
      "Eagerness": 5586,
      "Essence": 5587,
      "ELECTRI": 5588,
      "EERING": 5589,
      "Effective": 5590,
      "Electrical": 5591,
      "FRUITY": 5592,
      "Filmed": 5593,
      "FREY": 5594,
      "Faculty": 5595,
      "Following": 5596,
      "FIFO": 5597,
      "FLOWER": 5598,
      "Foundation": 5599,
      "GIRAFFE": 5600,
      "Germany": 5601,
      "Grant": 5602,
      "GloVe": 5603,
      "Hierarchical": 5604,
      "Houston": 5605,
      "Hesitant": 5606,
      "Hague": 5607,
      "Holt": 5608,
      "Higher": 5609,
      "Hardware": 5610,
      "Identif": 5611,
      "Ideally": 5612,
      "IEEE": 5613,
      "JOHN": 5614,
      "JRM6Ka": 5615,
      "Jeep": 5616,
      "January": 5617,
      "Jersey": 5618,
      "June": 5619,
      "Jeffrey": 5620,
      "JEFFREY": 5621,
      "Keyword": 5622,
      "Lake": 5623,
      "Labora": 5624,
      "LATER": 5625,
      "LITTLE": 5626,
      "LISP": 5627,
      "Lloyd": 5628,
      "Mathematics": 5629,
      "McGraw": 5630,
      "Manner": 5631,
      "Menlo": 5632,
      "Missing": 5633,
      "Mulhol": 5634,
      "MATCH": 5635,
      "Mouton": 5636,
      "Movement": 5637,
      "Nonetheless": 5638,
      "Naylor": 5639,
      "November": 5640,
      "Navy": 5641,
      "NESEP": 5642,
      "October": 5643,
      "Ogden": 5644,
      "Oppressed": 5645,
      "OPAQU": 5646,
      "OpenAI": 5647,
      "Placing": 5648,
      "Pimensionality": 5649,
      "Prentice": 5650,
      "RYE": 5651,
      "Rules": 5652,
      "Response": 5653,
      "Riggs": 5654,
      "Raphael": 5655,
      "Roughly": 5656,
      "Rinehart": 5657,
      "SWEET": 5658,
      "Sony": 5659,
      "Sensitive": 5660,
      "Salt": 5661,
      "Sleep": 5662,
      "Sentence": 5663,
      "Silver": 5664,
      "Surveys": 5665,
      "SALTY": 5666,
      "Successful": 5667,
      "Several": 5668,
      "Sproull": 5669,
      "SCHSA": 5670,
      "Sequential": 5671,
      "Switzer": 5672,
      "Trinitron": 5673,
      "Tense": 5674,
      "Time": 5675,
      "Texas": 5676,
      "TREE": 5677,
      "Triangle": 5678,
      "Upper": 5679,
      "Urbana": 5680,
      "UTEC": 5681,
      "UPPER": 5682,
      "Varimax": 5683,
      "WORD": 5684,
      "WHERE": 5685,
      "Workers": 5686,
      "Xgy2": 5687,
      "Zeeb": 5688,
      "avenue": 5689,
      "brief": 5690,
      "beneficial": 5691,
      "brightness": 5692,
      "catalog": 5693,
      "crossed": 5694,
      "career": 5695,
      "customary": 5696,
      "cutting": 5697,
      "courses": 5698,
      "cards": 5699,
      "crucial": 5700,
      "carried": 5701,
      "drew": 5702,
      "dangerous": 5703,
      "digital": 5704,
      "drastic": 5705,
      "erential": 5706,
      "fusion": 5707,
      "future": 5708,
      "front": 5709,
      "gging": 5710,
      "gurated": 5711,
      "global": 5712,
      "gathering": 5713,
      "https": 5714,
      "harsh": 5715,
      "judges": 5716,
      "longest": 5717,
      "larynx": 5718,
      "lDET": 5719,
      "message": 5720,
      "naturally": 5721,
      "narrow": 5722,
      "opaque": 5723,
      "panel": 5724,
      "pendence": 5725,
      "pipeline": 5726,
      "rassed": 5727,
      "sorted": 5728,
      "skepticism": 5729,
      "s4d23": 5730,
      "tuple": 5731,
      "tualize": 5732,
      "target": 5733,
      "wondering": 5734,
      "watch": 5735,
      "warm": 5736,
      "wander": 5737,
      "young": 5738,
      "youtube": 5739,
      "■..,": 5740,
      "ﬂedgling": 5741,
      "threshold": 5742,
      "third": 5743,
      "..---.": 5744,
      "invisible": 5745,
      "instruction": 5746,
      "inaugurated": 5747,
      "influenced": 5748,
      "inflexible": 5749,
      "relevant": 5750,
      "recog": 5751,
      "reserve": 5752,
      "revisions": 5753,
      "repeated": 5754,
      "referents": 5755,
      "anticipated": 5756,
      "angry": 5757,
      "organized": 5758,
      "envisioned": 5759,
      "enumerate": 5760,
      "algebra": 5761,
      "alternative": 5762,
      "always": 5763,
      "aligned": 5764,
      "education": 5765,
      "together": 5766,
      "towards": 5767,
      "starting": 5768,
      "stilted": 5769,
      "stunning": 5770,
      "articulated": 5771,
      "deleted": 5772,
      "despising": 5773,
      "deciding": 5774,
      "details": 5775,
      "declara": 5776,
      "deficiencies": 5777,
      "debugging": 5778,
      "devoid": 5779,
      "assembly": 5780,
      "seconds": 5781,
      "became": 5782,
      "besides": 5783,
      "imagine": 5784,
      "chemical": 5785,
      "chapter": 5786,
      "children": 5787,
      "construed": 5788,
      "contact": 5789,
      "concrete": 5790,
      "confirmed": 5791,
      "concerned": 5792,
      "configured": 5793,
      "coefficients": 5794,
      "essential": 5795,
      "spliced": 5796,
      "strikingly": 5797,
      "mapped": 5798,
      "exposure": 5799,
      "exclude": 5800,
      "experiments": 5801,
      "exemplified": 5802,
      "explanation": 5803,
      "properties": 5804,
      "procedure": 5805,
      "promising": 5806,
      "vertices": 5807,
      "verifying": 5808,
      "absurdum": 5809,
      "RECTANGLE": 5810,
      "RESINOUS": 5811,
      "RECEIVED": 5812,
      "adopted": 5813,
      "polyhedra": 5814,
      "unorthodox": 5815,
      "uncertaint": 5816,
      "premultiplying": 5817,
      "precludes": 5818,
      "prepositions": 5819,
      "precision": 5820,
      "partially": 5821,
      "parallels": 5822,
      "paragraphs": 5823,
      "synonyms": 5824,
      "synchronized": 5825,
      "International": 5826,
      "Insights": 5827,
      "embarrassed": 5828,
      "permissible": 5829,
      "perspective": 5830,
      "teachable": 5831,
      "negatives": 5832,
      "neglecting": 5833,
      "phenomenon": 5834,
      "ENGINEERING": 5835,
      "grammatical": 5836,
      "RALEIGH": 5837,
      "RADIUS": 5838,
      "accessible": 5839,
      "account": 5840,
      "ATTEMPT": 5841,
      "applicable": 5842,
      "minded1": 5843,
      "intended": 5844,
      "curiosity": 5845,
      "BOTTOM": 5846,
      "obliterated": 5847,
      "PASTRAMI": 5848,
      "ALGOL": 5849,
      "speculative": 5850,
      "understood": 5851,
      "multimodal": 5852,
      "multiplica": 5853,
      "rectangular": 5854,
      "peculiar": 5855,
      "Startled": 5856,
      "Studies": 5857,
      "nounnesswe": 5858,
      "numeric": 5859,
      "numbered": 5860,
      "relieved": 5861,
      "bottom": 5862,
      "DEPARTMENT": 5863,
      "markings": 5864,
      "intermediate": 5865,
      "Reflections": 5866,
      "Returning": 5867,
      "Reﬂections": 5868,
      "surroundings": 5869,
      "Entries": 5870,
      "Cognitive": 5871,
      "Coordinated": 5872,
      "Communica": 5873,
      "columns": 5874,
      "TEENSY": 5875,
      "asterisk": 5876,
      "Engineering": 5877,
      "fulfillment": 5878,
      "INFORMATION": 5879,
      "responsibility": 5880,
      "happened": 5881,
      "favored": 5882,
      "Association": 5883,
      "Extended": 5884,
      "Motivational": 5885,
      "Modifications": 5886,
      "retrieving": 5887,
      "discrimination": 5888,
      "discouraged": 5889,
      "APPROVED": 5890,
      "augmentation": 5891,
      "adjustment": 5892,
      "duplicating": 5893,
      "BECAUSE": 5894,
      "Unfortunately": 5895,
      "gratitude": 5896,
      "Philosophy": 5897,
      "Authoritarian": 5898,
      "Automata": 5899,
      "CHOCOLATE": 5900,
      "Lancaster": 5901,
      "CONTENTS": 5902,
      "Principles": 5903,
      "Symposium": 5904,
      "distribution": 5905,
      "Admiring": 5906,
      "GEMENTS": 5907,
      "foreshadows": 5908,
      "microfilm": 5909,
      "ACKNOWLEDGEMENTS": 5910,
      "Marburg": 5911,
      "Margaret": 5912,
      "available": 5913,
      "bracketed": 5914,
      "vocabulary": 5915,
      "COMPONENT": 5916,
      "Approximation": 5917,
      "Chicago": 5918,
      "Word2Vec": 5919,
      "biologically": 5920,
      "criticisms": 5921,
      "agglomerated": 5922,
      "combinatorial": 5923,
      "EXECUTE": 5924,
      "MICROFILMED": 5925,
      "September": 5926,
      "TEMPERATURE": 5927,
      ">»,,,»»’": 5928,
      "Assistantship": 5929,
      "ASSOCIATIVE": 5930,
      "BIOGRAPHY": 5931,
      "Berkowitz": 5932,
      "Castagnola": 5933,
      "ELECTRICAL": 5934,
      "FLOWERY": 5935,
      "Identification": 5936,
      "JRM6KaBZo6w": 5937,
      "Mulholland": 5938,
      "OPAQUE": 5939,
      "Switzerland": 5940,
      "uncertainty": 5941
    },
    "merges": [
      [
        "t",
        "h"
      ],
      [
        ".",
        "."
      ],
      [
        "i",
        "n"
      ],
      [
        "r",
        "e"
      ],
      [
        "th",
        "e"
      ],
      [
        "o",
        "n"
      ],
      [
        "a",
        "n"
      ],
      [
        "a",
        "t"
      ],
      [
        "o",
        "r"
      ],
      [
        "e",
        "n"
      ],
      [
        "e",
        "r"
      ],
      [
        "..",
        ".."
      ],
      [
        "i",
        "s"
      ],
      [
        "a",
        "l"
      ],
      [
        "e",
        "d"
      ],
      [
        "i",
        "on"
      ],
      [
        "o",
        "f"
      ],
      [
        "c",
        "e"
      ],
      [
        "in",
        "g"
      ],
      [
        "t",
        "o"
      ],
      [
        "c",
        "t"
      ],
      [
        "i",
        "t"
      ],
      [
        "s",
        "t"
      ],
      [
        "i",
        "c"
      ],
      [
        "a",
        "r"
      ],
      [
        "d",
        "e"
      ],
      [
        "a",
        "s"
      ],
      [
        "an",
        "d"
      ],
      [
        "s",
        "e"
      ],
      [
        "....",
        "...."
      ],
      [
        "v",
        "e"
      ],
      [
        "o",
        "u"
      ],
      [
        "l",
        "e"
      ],
      [
        "b",
        "e"
      ],
      [
        "en",
        "t"
      ],
      [
        "r",
        "o"
      ],
      [
        "f",
        "or"
      ],
      [
        "i",
        "m"
      ],
      [
        "c",
        "h"
      ],
      [
        "at",
        "ion"
      ],
      [
        "u",
        "re"
      ],
      [
        "c",
        "on"
      ],
      [
        "l",
        "y"
      ],
      [
        "c",
        "o"
      ],
      [
        "e",
        "s"
      ],
      [
        "T",
        "h"
      ],
      [
        "m",
        "o"
      ],
      [
        "w",
        "h"
      ],
      [
        "r",
        "a"
      ],
      [
        "s",
        "u"
      ],
      [
        "w",
        "or"
      ],
      [
        "s",
        "p"
      ],
      [
        "st",
        "r"
      ],
      [
        "t",
        "er"
      ],
      [
        "m",
        "e"
      ],
      [
        "for",
        "m"
      ],
      [
        "m",
        "a"
      ],
      [
        "e",
        "x"
      ],
      [
        "m",
        "p"
      ],
      [
        "p",
        "ro"
      ],
      [
        "o",
        "w"
      ],
      [
        "ic",
        "h"
      ],
      [
        "wh",
        "ich"
      ],
      [
        "i",
        "g"
      ],
      [
        "i",
        "l"
      ],
      [
        "p",
        "t"
      ],
      [
        "........",
        "........"
      ],
      [
        "i",
        "ve"
      ],
      [
        "Th",
        "e"
      ],
      [
        "v",
        "er"
      ],
      [
        "s",
        "ent"
      ],
      [
        "th",
        "is"
      ],
      [
        "th",
        "at"
      ],
      [
        "a",
        "ce"
      ],
      [
        "l",
        "d"
      ],
      [
        "s",
        "ion"
      ],
      [
        "ce",
        "pt"
      ],
      [
        "al",
        "l"
      ],
      [
        "a",
        "g"
      ],
      [
        "b",
        "y"
      ],
      [
        "n",
        "o"
      ],
      [
        "u",
        "ct"
      ],
      [
        "a",
        "re"
      ],
      [
        "s",
        "o"
      ],
      [
        "q",
        "u"
      ],
      [
        "u",
        "s"
      ],
      [
        "a",
        "b"
      ],
      [
        "R",
        "E"
      ],
      [
        "en",
        "ce"
      ],
      [
        "a",
        "d"
      ],
      [
        "u",
        "r"
      ],
      [
        "p",
        "o"
      ],
      [
        "f",
        "e"
      ],
      [
        "wor",
        "d"
      ],
      [
        "u",
        "n"
      ],
      [
        "d",
        "i"
      ],
      [
        "p",
        "re"
      ],
      [
        "g",
        "ra"
      ],
      [
        "i",
        "th"
      ],
      [
        "u",
        "l"
      ],
      [
        "en",
        "sion"
      ],
      [
        "r",
        "an"
      ],
      [
        "it",
        "y"
      ],
      [
        "at",
        "e"
      ],
      [
        "ma",
        "y"
      ],
      [
        "p",
        "ar"
      ],
      [
        "con",
        "cept"
      ],
      [
        "s",
        "y"
      ],
      [
        "u",
        "t"
      ],
      [
        "ou",
        "ld"
      ],
      [
        "I",
        "n"
      ],
      [
        "s",
        "s"
      ],
      [
        "uct",
        "ure"
      ],
      [
        "u",
        "al"
      ],
      [
        "de",
        "l"
      ],
      [
        "c",
        "i"
      ],
      [
        "im",
        "ension"
      ],
      [
        "e",
        "m"
      ],
      [
        "p",
        "er"
      ],
      [
        "e",
        "ct"
      ],
      [
        "co",
        "mp"
      ],
      [
        "w",
        "ith"
      ],
      [
        "f",
        "in"
      ],
      [
        "mo",
        "del"
      ],
      [
        "d",
        "imension"
      ],
      [
        "sp",
        "ace"
      ],
      [
        "ag",
        "e"
      ],
      [
        "ran",
        "s"
      ],
      [
        "r",
        "i"
      ],
      [
        "at",
        "ed"
      ],
      [
        "C",
        "T"
      ],
      [
        "h",
        "a"
      ],
      [
        "is",
        "t"
      ],
      [
        "ct",
        "or"
      ],
      [
        "t",
        "e"
      ],
      [
        "O",
        "D"
      ],
      [
        "d",
        "er"
      ],
      [
        "m",
        "b"
      ],
      [
        "str",
        "ucture"
      ],
      [
        "t",
        "a"
      ],
      [
        "me",
        "an"
      ],
      [
        "n",
        "e"
      ],
      [
        "w",
        "e"
      ],
      [
        "at",
        "ure"
      ],
      [
        "ve",
        "ctor"
      ],
      [
        "g",
        "u"
      ],
      [
        "it",
        "ion"
      ],
      [
        "form",
        "ation"
      ],
      [
        "sent",
        "ence"
      ],
      [
        "p",
        "h"
      ],
      [
        "re",
        "d"
      ],
      [
        "s",
        "ing"
      ],
      [
        "l",
        "o"
      ],
      [
        "m",
        "an"
      ],
      [
        "E",
        "N"
      ],
      [
        "mean",
        "ing"
      ],
      [
        "m",
        "ent"
      ],
      [
        "p",
        "l"
      ],
      [
        "gra",
        "m"
      ],
      [
        "t",
        "rans"
      ],
      [
        "no",
        "t"
      ],
      [
        "R",
        "A"
      ],
      [
        "u",
        "se"
      ],
      [
        "w",
        "ould"
      ],
      [
        "l",
        "an"
      ],
      [
        "re",
        "e"
      ],
      [
        "ro",
        "m"
      ],
      [
        "de",
        "fin"
      ],
      [
        "t",
        "i"
      ],
      [
        ",",
        ","
      ],
      [
        "f",
        "rom"
      ],
      [
        "j",
        "ect"
      ],
      [
        "ct",
        "ion"
      ],
      [
        "i",
        "r"
      ],
      [
        "ou",
        "n"
      ],
      [
        "su",
        "b"
      ],
      [
        "L",
        "E"
      ],
      [
        "a",
        "c"
      ],
      [
        "a",
        "ch"
      ],
      [
        "v",
        "i"
      ],
      [
        "st",
        "em"
      ],
      [
        "fe",
        "ature"
      ],
      [
        "O",
        "N"
      ],
      [
        "o",
        "l"
      ],
      [
        "pre",
        "sent"
      ],
      [
        "lan",
        "gu"
      ],
      [
        "A",
        "T"
      ],
      [
        "b",
        "as"
      ],
      [
        "sy",
        "stem"
      ],
      [
        "il",
        "l"
      ],
      [
        "1",
        "9"
      ],
      [
        "E",
        "CT"
      ],
      [
        "ce",
        "ss"
      ],
      [
        "a",
        "p"
      ],
      [
        "p",
        "le"
      ],
      [
        "re",
        "n"
      ],
      [
        "at",
        "ive"
      ],
      [
        "T",
        "H"
      ],
      [
        "m",
        "in"
      ],
      [
        "the",
        "r"
      ],
      [
        "O",
        "B"
      ],
      [
        "in",
        "t"
      ],
      [
        "word",
        "s"
      ],
      [
        "-",
        ","
      ],
      [
        "J",
        "ECT"
      ],
      [
        "langu",
        "age"
      ],
      [
        "e",
        "ar"
      ],
      [
        "w",
        "as"
      ],
      [
        "dimension",
        "al"
      ],
      [
        "OB",
        "JECT"
      ],
      [
        "E",
        "S"
      ],
      [
        "it",
        "s"
      ],
      [
        "R",
        "C"
      ],
      [
        "c",
        "ur"
      ],
      [
        "i",
        "z"
      ],
      [
        "t",
        "ic"
      ],
      [
        "B",
        "O"
      ],
      [
        "s",
        "h"
      ],
      [
        "E",
        "R"
      ],
      [
        "M",
        "OD"
      ],
      [
        "l",
        "in"
      ],
      [
        "m",
        "at"
      ],
      [
        "ar",
        "ch"
      ],
      [
        "ha",
        "ve"
      ],
      [
        "o",
        "b"
      ],
      [
        "s",
        "er"
      ],
      [
        "the",
        "se"
      ],
      [
        "pro",
        "gram"
      ],
      [
        "ig",
        "ure"
      ],
      [
        "us",
        "ed"
      ],
      [
        "I",
        "T"
      ],
      [
        "c",
        "or"
      ],
      [
        "d",
        "is"
      ],
      [
        "di",
        "f"
      ],
      [
        "P",
        "A"
      ],
      [
        "ou",
        "s"
      ],
      [
        "con",
        "t"
      ],
      [
        "Th",
        "is"
      ],
      [
        "all",
        "ow"
      ],
      [
        "G",
        "RA"
      ],
      [
        "en",
        "d"
      ],
      [
        "ic",
        "al"
      ],
      [
        "ou",
        "r"
      ],
      [
        "ig",
        "h"
      ],
      [
        "e",
        "ach"
      ],
      [
        "ch",
        "an"
      ],
      [
        "A",
        "L"
      ],
      [
        "C",
        "I"
      ],
      [
        "t",
        "im"
      ],
      [
        "co",
        "m"
      ],
      [
        "sp",
        "e"
      ],
      [
        "un",
        "der"
      ],
      [
        "F",
        "igure"
      ],
      [
        "I",
        "ON"
      ],
      [
        "h",
        "as"
      ],
      [
        "m",
        "ul"
      ],
      [
        "in",
        "to"
      ],
      [
        "re",
        "present"
      ],
      [
        "ou",
        "t"
      ],
      [
        "wor",
        "k"
      ],
      [
        "ab",
        "le"
      ],
      [
        "EN",
        "GRA"
      ],
      [
        "RC",
        "LE"
      ],
      [
        "CI",
        "RCLE"
      ],
      [
        "ENGRA",
        "F"
      ],
      [
        "s",
        "c"
      ],
      [
        "u",
        "e"
      ],
      [
        "st",
        "and"
      ],
      [
        "ad",
        "d"
      ],
      [
        "concept",
        "ual"
      ],
      [
        "mul",
        "ti"
      ],
      [
        "h",
        "e"
      ],
      [
        "u",
        "ter"
      ],
      [
        "ta",
        "in"
      ],
      [
        "19",
        "7"
      ],
      [
        "BO",
        "X"
      ],
      [
        "a",
        "ct"
      ],
      [
        "tim",
        "e"
      ],
      [
        "I",
        "F"
      ],
      [
        "g",
        "e"
      ],
      [
        "v",
        "is"
      ],
      [
        "in",
        "ce"
      ],
      [
        "in",
        "formation"
      ],
      [
        "re",
        "ct"
      ],
      [
        "the",
        "ir"
      ],
      [
        "ver",
        "b"
      ],
      [
        "ren",
        "t"
      ],
      [
        "g",
        "on"
      ],
      [
        "v",
        "ed"
      ],
      [
        "w",
        "ill"
      ],
      [
        "................",
        "................"
      ],
      [
        "qu",
        "i"
      ],
      [
        "TH",
        "E"
      ],
      [
        "ob",
        "ject"
      ],
      [
        "L",
        "O"
      ],
      [
        "h",
        "i"
      ],
      [
        "p",
        "e"
      ],
      [
        "t",
        "y"
      ],
      [
        "is",
        "h"
      ],
      [
        "de",
        "p"
      ],
      [
        "ex",
        "t"
      ],
      [
        "c",
        "a"
      ],
      [
        "c",
        "l"
      ],
      [
        "t",
        "ree"
      ],
      [
        "en",
        "er"
      ],
      [
        "ic",
        "ation"
      ],
      [
        "ter",
        "min"
      ],
      [
        "po",
        "int"
      ],
      [
        "par",
        "sing"
      ],
      [
        "MOD",
        "IF"
      ],
      [
        "i",
        "ed"
      ],
      [
        "n",
        "i"
      ],
      [
        "s",
        "im"
      ],
      [
        "the",
        "n"
      ],
      [
        "is",
        "m"
      ],
      [
        "be",
        "en"
      ],
      [
        "pro",
        "cess"
      ],
      [
        "A",
        "N"
      ],
      [
        "g",
        "h"
      ],
      [
        "re",
        "qui"
      ],
      [
        "al",
        "so"
      ],
      [
        "ar",
        "y"
      ],
      [
        "as",
        "so"
      ],
      [
        "ou",
        "gh"
      ],
      [
        "str",
        "ing"
      ],
      [
        "mb",
        "er"
      ],
      [
        "under",
        "stand"
      ],
      [
        "S",
        "t"
      ],
      [
        "a",
        "mp"
      ],
      [
        "g",
        "ener"
      ],
      [
        "l",
        "l"
      ],
      [
        "l",
        "ish"
      ],
      [
        "on",
        "e"
      ],
      [
        "asso",
        "ci"
      ],
      [
        "amp",
        "le"
      ],
      [
        "b",
        "le"
      ],
      [
        "e",
        "v"
      ],
      [
        "o",
        "per"
      ],
      [
        "p",
        "ut"
      ],
      [
        "u",
        "c"
      ],
      [
        "..",
        "."
      ],
      [
        "re",
        "g"
      ],
      [
        "al",
        "ly"
      ],
      [
        "no",
        "de"
      ],
      [
        "gra",
        "ph"
      ],
      [
        "OBJECT",
        "S"
      ],
      [
        "com",
        "m"
      ],
      [
        "e",
        "p"
      ],
      [
        "e",
        "ver"
      ],
      [
        "k",
        "e"
      ],
      [
        "n",
        "oun"
      ],
      [
        "o",
        "ther"
      ],
      [
        "t",
        "ion"
      ],
      [
        "u",
        "p"
      ],
      [
        "ic",
        "s"
      ],
      [
        "ow",
        "n"
      ],
      [
        "dimension",
        "s"
      ],
      [
        "vector",
        "s"
      ],
      [
        "sentence",
        "s"
      ],
      [
        "feature",
        "s"
      ],
      [
        "dep",
        "end"
      ],
      [
        "S",
        "I"
      ],
      [
        "S",
        "S"
      ],
      [
        "c",
        "all"
      ],
      [
        "d",
        "at"
      ],
      [
        "n",
        "u"
      ],
      [
        "se",
        "t"
      ],
      [
        "ly",
        "gon"
      ],
      [
        "mo",
        "re"
      ],
      [
        "su",
        "ch"
      ],
      [
        "ur",
        "al"
      ],
      [
        "trans",
        "formation"
      ],
      [
        "defin",
        "ed"
      ],
      [
        "igh",
        "t"
      ],
      [
        "K",
        "E"
      ],
      [
        "W",
        "e"
      ],
      [
        "re",
        "l"
      ],
      [
        "on",
        "ly"
      ],
      [
        "at",
        "es"
      ],
      [
        "is",
        "ter"
      ],
      [
        "as",
        "e"
      ],
      [
        "mo",
        "dif"
      ],
      [
        "il",
        "ity"
      ],
      [
        "structure",
        "s"
      ],
      [
        "dat",
        "a"
      ],
      [
        "1",
        "0"
      ],
      [
        "C",
        "on"
      ],
      [
        "b",
        "o"
      ],
      [
        "i",
        "f"
      ],
      [
        "m",
        "s"
      ],
      [
        "se",
        "man"
      ],
      [
        "ca",
        "use"
      ],
      [
        "MODIF",
        "Y"
      ],
      [
        "nu",
        "mber"
      ],
      [
        "seman",
        "tic"
      ],
      [
        ")",
        "."
      ],
      [
        "A",
        "CT"
      ],
      [
        "D",
        "E"
      ],
      [
        "I",
        "S"
      ],
      [
        "f",
        "ace"
      ],
      [
        "g",
        "i"
      ],
      [
        "l",
        "ow"
      ],
      [
        "in",
        "put"
      ],
      [
        "it",
        "ive"
      ],
      [
        "con",
        "tain"
      ],
      [
        "ex",
        "ist"
      ],
      [
        "qu",
        "e"
      ],
      [
        "cur",
        "rent"
      ],
      [
        "lin",
        "ear"
      ],
      [
        "O",
        "F"
      ],
      [
        "a",
        "y"
      ],
      [
        "d",
        "o"
      ],
      [
        "f",
        "ic"
      ],
      [
        "i",
        "d"
      ],
      [
        "m",
        "ar"
      ],
      [
        "t",
        "ation"
      ],
      [
        "t",
        "work"
      ],
      [
        "in",
        "ter"
      ],
      [
        "ion",
        "s"
      ],
      [
        "as",
        "s"
      ],
      [
        "es",
        "s"
      ],
      [
        "OD",
        "E"
      ],
      [
        "mat",
        "ri"
      ],
      [
        "PA",
        "SS"
      ],
      [
        "spe",
        "ci"
      ],
      [
        "vis",
        "ual"
      ],
      [
        "reg",
        "ister"
      ],
      [
        "L",
        "U"
      ],
      [
        "R",
        "e"
      ],
      [
        "c",
        "ould"
      ],
      [
        "i",
        "al"
      ],
      [
        "t",
        "ed"
      ],
      [
        "su",
        "r"
      ],
      [
        "ig",
        "u"
      ],
      [
        "us",
        "ing"
      ],
      [
        "par",
        "t"
      ],
      [
        "par",
        "ser"
      ],
      [
        "comp",
        "uter"
      ],
      [
        "mb",
        "igu"
      ],
      [
        "1",
        "1"
      ],
      [
        "E",
        "n"
      ],
      [
        "R",
        "O"
      ],
      [
        "T",
        "O"
      ],
      [
        "h",
        "ow"
      ],
      [
        "i",
        "es"
      ],
      [
        "n",
        "er"
      ],
      [
        "p",
        "or"
      ],
      [
        "s",
        "a"
      ],
      [
        "in",
        "d"
      ],
      [
        "se",
        "arch"
      ],
      [
        "wor",
        "ld"
      ],
      [
        "po",
        "s"
      ],
      [
        "lo",
        "g"
      ],
      [
        ",,",
        ",,"
      ],
      [
        "understand",
        "ing"
      ],
      [
        ")",
        ","
      ],
      [
        "*",
        "*"
      ],
      [
        "C",
        "o"
      ],
      [
        "c",
        "le"
      ],
      [
        "i",
        "ble"
      ],
      [
        "p",
        "r"
      ],
      [
        "s",
        "to"
      ],
      [
        "co",
        "l"
      ],
      [
        "ex",
        "ample"
      ],
      [
        "po",
        "lygon"
      ],
      [
        "oun",
        "d"
      ],
      [
        "cor",
        "rect"
      ],
      [
        "conceptual",
        "iz"
      ],
      [
        "requi",
        "re"
      ],
      [
        "depend",
        "ent"
      ],
      [
        "speci",
        "f"
      ],
      [
        "sur",
        "face"
      ],
      [
        "P",
        "ar"
      ],
      [
        "T",
        "E"
      ],
      [
        "a",
        "st"
      ],
      [
        "e",
        "w"
      ],
      [
        "g",
        "n"
      ],
      [
        "t",
        "s"
      ],
      [
        "an",
        "t"
      ],
      [
        "ce",
        "s"
      ],
      [
        "lo",
        "c"
      ],
      [
        "meaning",
        "s"
      ],
      [
        "object",
        "s"
      ],
      [
        "En",
        "g"
      ],
      [
        "-",
        "."
      ],
      [
        ".",
        "\""
      ],
      [
        "1",
        "6"
      ],
      [
        "9",
        "9"
      ],
      [
        "G",
        "H"
      ],
      [
        "O",
        "K"
      ],
      [
        "f",
        "ra"
      ],
      [
        "t",
        "w"
      ],
      [
        "v",
        "en"
      ],
      [
        "on",
        "g"
      ],
      [
        "at",
        "ural"
      ],
      [
        "ar",
        "d"
      ],
      [
        "de",
        "ep"
      ],
      [
        "se",
        "s"
      ],
      [
        "ation",
        "al"
      ],
      [
        "form",
        "al"
      ],
      [
        "ab",
        "ility"
      ],
      [
        "per",
        "form"
      ],
      [
        "add",
        "ition"
      ],
      [
        "up",
        "on"
      ],
      [
        "D",
        "e"
      ],
      [
        "S",
        "ince"
      ],
      [
        "a",
        "ction"
      ],
      [
        "e",
        "c"
      ],
      [
        "f",
        "fe"
      ],
      [
        "f",
        "ul"
      ],
      [
        "i",
        "ct"
      ],
      [
        "t",
        "en"
      ],
      [
        "v",
        "al"
      ],
      [
        "re",
        "sp"
      ],
      [
        "ar",
        "i"
      ],
      [
        "de",
        "sc"
      ],
      [
        "ation",
        "s"
      ],
      [
        "ab",
        "out"
      ],
      [
        "with",
        "in"
      ],
      [
        "te",
        "ch"
      ],
      [
        "ne",
        "twork"
      ],
      [
        "gram",
        "mar"
      ],
      [
        "AL",
        "L"
      ],
      [
        "Eng",
        "lish"
      ],
      [
        "I",
        "N"
      ],
      [
        "S",
        "L"
      ],
      [
        "T",
        "rans"
      ],
      [
        "a",
        "mbigu"
      ],
      [
        "d",
        "ed"
      ],
      [
        "e",
        "re"
      ],
      [
        "e",
        "ch"
      ],
      [
        "i",
        "p"
      ],
      [
        "k",
        "en"
      ],
      [
        "l",
        "ist"
      ],
      [
        "n",
        "ta"
      ],
      [
        "n",
        "atural"
      ],
      [
        "r",
        "ucture"
      ],
      [
        "s",
        "ince"
      ],
      [
        "the",
        "y"
      ],
      [
        "or",
        "d"
      ],
      [
        "er",
        "s"
      ],
      [
        "it",
        "e"
      ],
      [
        "im",
        "ple"
      ],
      [
        "comp",
        "le"
      ],
      [
        "man",
        "ner"
      ],
      [
        "bas",
        "e"
      ],
      [
        "ap",
        "pro"
      ],
      [
        "St",
        "ructure"
      ],
      [
        "graph",
        "ics"
      ],
      [
        "KE",
        "Y"
      ],
      [
        "Con",
        "cept"
      ],
      [
        "ACT",
        "ION"
      ],
      [
        "sto",
        "red"
      ],
      [
        "tw",
        "o"
      ],
      [
        "1",
        "2"
      ],
      [
        "A",
        "r"
      ],
      [
        "B",
        "LU"
      ],
      [
        "C",
        "O"
      ],
      [
        "O",
        "R"
      ],
      [
        "b",
        "ut"
      ],
      [
        "c",
        "re"
      ],
      [
        "c",
        "an"
      ],
      [
        "e",
        "t"
      ],
      [
        "i",
        "de"
      ],
      [
        "l",
        "i"
      ],
      [
        "m",
        "u"
      ],
      [
        "s",
        "en"
      ],
      [
        "y",
        "s"
      ],
      [
        "re",
        "su"
      ],
      [
        "ve",
        "l"
      ],
      [
        "le",
        "vel"
      ],
      [
        "str",
        "uct"
      ],
      [
        "so",
        "l"
      ],
      [
        "ci",
        "r"
      ],
      [
        "ac",
        "k"
      ],
      [
        "bas",
        "ed"
      ],
      [
        "ty",
        "p"
      ],
      [
        "oper",
        "at"
      ],
      [
        "how",
        "ever"
      ],
      [
        "Co",
        "mp"
      ],
      [
        "ict",
        "ure"
      ],
      [
        "A",
        "RE"
      ],
      [
        "T",
        "ALL"
      ],
      [
        "U",
        "RE"
      ],
      [
        "b",
        "l"
      ],
      [
        "d",
        "ing"
      ],
      [
        "d",
        "uc"
      ],
      [
        "f",
        "ir"
      ],
      [
        "l",
        "ing"
      ],
      [
        "l",
        "ar"
      ],
      [
        "m",
        "ed"
      ],
      [
        "n",
        "ature"
      ],
      [
        "s",
        "ive"
      ],
      [
        "th",
        "o"
      ],
      [
        "in",
        "ver"
      ],
      [
        "re",
        "al"
      ],
      [
        "an",
        "y"
      ],
      [
        "or",
        "y"
      ],
      [
        "st",
        "ions"
      ],
      [
        "ic",
        "ated"
      ],
      [
        "de",
        "termin"
      ],
      [
        "Th",
        "us"
      ],
      [
        "ag",
        "es"
      ],
      [
        "RE",
        "D"
      ],
      [
        "sy",
        "nta"
      ],
      [
        "model",
        "s"
      ],
      [
        "allow",
        "s"
      ],
      [
        "multi",
        "dimensional"
      ],
      [
        "AN",
        "D"
      ],
      [
        "gi",
        "ven"
      ],
      [
        "matri",
        "x"
      ],
      [
        "pr",
        "im"
      ],
      [
        "resp",
        "on"
      ],
      [
        "desc",
        "ri"
      ],
      [
        "tech",
        "ni"
      ],
      [
        "cir",
        "cle"
      ],
      [
        "A",
        "D"
      ],
      [
        "I",
        "f"
      ],
      [
        "L",
        "N"
      ],
      [
        "S",
        "Q"
      ],
      [
        "S",
        "chan"
      ],
      [
        "f",
        "act"
      ],
      [
        "h",
        "is"
      ],
      [
        "o",
        "ve"
      ],
      [
        "r",
        "u"
      ],
      [
        "r",
        "ough"
      ],
      [
        "s",
        "ed"
      ],
      [
        "th",
        "an"
      ],
      [
        "ct",
        "ic"
      ],
      [
        "ch",
        "o"
      ],
      [
        "su",
        "c"
      ],
      [
        "so",
        "me"
      ],
      [
        "RE",
        "LN"
      ],
      [
        "fe",
        "ren"
      ],
      [
        "ha",
        "p"
      ],
      [
        "ne",
        "w"
      ],
      [
        "dimensional",
        "ity"
      ],
      [
        "dis",
        "pl"
      ],
      [
        "cont",
        "ext"
      ],
      [
        "termin",
        "al"
      ],
      [
        "formal",
        "ism"
      ],
      [
        "ambigu",
        "ity"
      ],
      [
        "imple",
        "ment"
      ],
      [
        "resu",
        "l"
      ],
      [
        "operat",
        "or"
      ],
      [
        "fir",
        "st"
      ],
      [
        "inver",
        "se"
      ],
      [
        "Schan",
        "k"
      ],
      [
        "C",
        "E"
      ],
      [
        "I",
        "GH"
      ],
      [
        "M",
        "O"
      ],
      [
        "N",
        "O"
      ],
      [
        "f",
        "a"
      ],
      [
        "f",
        "ol"
      ],
      [
        "g",
        "re"
      ],
      [
        "t",
        "all"
      ],
      [
        "u",
        "ist"
      ],
      [
        "v",
        "ing"
      ],
      [
        "th",
        "ree"
      ],
      [
        "th",
        "ough"
      ],
      [
        "in",
        "e"
      ],
      [
        "the",
        "m"
      ],
      [
        "or",
        "der"
      ],
      [
        "er",
        "arch"
      ],
      [
        "al",
        "ity"
      ],
      [
        "it",
        "u"
      ],
      [
        "st",
        "ate"
      ],
      [
        "de",
        "s"
      ],
      [
        "se",
        "qu"
      ],
      [
        "be",
        "t"
      ],
      [
        "wh",
        "ere"
      ],
      [
        "me",
        "chan"
      ],
      [
        "ver",
        "s"
      ],
      [
        "un",
        "ction"
      ],
      [
        "model",
        "ed"
      ],
      [
        "trans",
        "form"
      ],
      [
        "defin",
        "ition"
      ],
      [
        "vi",
        "ous"
      ],
      [
        "LO",
        "AD"
      ],
      [
        "associ",
        "ative"
      ],
      [
        "col",
        "or"
      ],
      [
        "Par",
        "sing"
      ],
      [
        "ord",
        "in"
      ],
      [
        "BLU",
        "E"
      ],
      [
        "mechan",
        "ism"
      ],
      [
        "+",
        "."
      ],
      [
        "3",
        "0"
      ],
      [
        "A",
        "C"
      ],
      [
        "A",
        "n"
      ],
      [
        "A",
        "s"
      ],
      [
        "E",
        "x"
      ],
      [
        "M",
        "o"
      ],
      [
        "S",
        "H"
      ],
      [
        "V",
        "E"
      ],
      [
        "W",
        "hi"
      ],
      [
        "f",
        "ound"
      ],
      [
        "k",
        "ing"
      ],
      [
        "l",
        "ong"
      ],
      [
        "m",
        "er"
      ],
      [
        "n",
        "ow"
      ],
      [
        "p",
        "ri"
      ],
      [
        "re",
        "t"
      ],
      [
        "re",
        "cur"
      ],
      [
        "ic",
        "on"
      ],
      [
        "co",
        "ordin"
      ],
      [
        "ma",
        "in"
      ],
      [
        "il",
        "ar"
      ],
      [
        "ab",
        "ove"
      ],
      [
        "di",
        "rect"
      ],
      [
        "pre",
        "vious"
      ],
      [
        "sy",
        "mb"
      ],
      [
        "ph",
        "o"
      ],
      [
        "AT",
        "ION"
      ],
      [
        "bas",
        "is"
      ],
      [
        "sh",
        "own"
      ],
      [
        "ER",
        "S"
      ],
      [
        "dis",
        "c"
      ],
      [
        "cont",
        "ro"
      ],
      [
        "LO",
        "C"
      ],
      [
        "hi",
        "erarch"
      ],
      [
        "associ",
        "ated"
      ],
      [
        "call",
        "ed"
      ],
      [
        "register",
        "s"
      ],
      [
        "fra",
        "me"
      ],
      [
        "ffe",
        "ct"
      ],
      [
        "synta",
        "ctic"
      ],
      [
        "IGH",
        "T"
      ],
      [
        "fol",
        "low"
      ],
      [
        "Whi",
        "le"
      ],
      [
        "symb",
        "ol"
      ],
      [
        "A",
        "P"
      ],
      [
        "P",
        "T"
      ],
      [
        "U",
        "ARE"
      ],
      [
        "a",
        "u"
      ],
      [
        "f",
        "unction"
      ],
      [
        "k",
        "s"
      ],
      [
        "m",
        "y"
      ],
      [
        "m",
        "on"
      ],
      [
        "m",
        "it"
      ],
      [
        "p",
        "icture"
      ],
      [
        "an",
        "s"
      ],
      [
        "ro",
        "w"
      ],
      [
        "con",
        "s"
      ],
      [
        "co",
        "gn"
      ],
      [
        "mo",
        "st"
      ],
      [
        "wh",
        "en"
      ],
      [
        "ad",
        "j"
      ],
      [
        "ur",
        "n"
      ],
      [
        "ul",
        "ar"
      ],
      [
        "em",
        "an"
      ],
      [
        "ne",
        "cess"
      ],
      [
        "we",
        "en"
      ],
      [
        "ment",
        "s"
      ],
      [
        "ction",
        "s"
      ],
      [
        "present",
        "ed"
      ],
      [
        "ES",
        "S"
      ],
      [
        "iz",
        "ed"
      ],
      [
        "sh",
        "ip"
      ],
      [
        "represent",
        "ation"
      ],
      [
        "ty",
        "pe"
      ],
      [
        "sim",
        "ple"
      ],
      [
        "sim",
        "ilar"
      ],
      [
        "lish",
        "ed"
      ],
      [
        "comm",
        "and"
      ],
      [
        "IS",
        "T"
      ],
      [
        "RO",
        "T"
      ],
      [
        "sa",
        "me"
      ],
      [
        "specif",
        "ied"
      ],
      [
        "mu",
        "st"
      ],
      [
        "typ",
        "es"
      ],
      [
        "Comp",
        "uter"
      ],
      [
        "bl",
        "ue"
      ],
      [
        "bet",
        "ween"
      ],
      [
        "1",
        "4"
      ],
      [
        "1",
        "7"
      ],
      [
        "2",
        "3"
      ],
      [
        "3",
        "1"
      ],
      [
        "A",
        "S"
      ],
      [
        "F",
        "OR"
      ],
      [
        "G",
        "RE"
      ],
      [
        "I",
        "t"
      ],
      [
        "M",
        "E"
      ],
      [
        "N",
        "P"
      ],
      [
        "S",
        "PA"
      ],
      [
        "V",
        "ER"
      ],
      [
        "W",
        "in"
      ],
      [
        "_",
        "_"
      ],
      [
        "c",
        "ed"
      ],
      [
        "h",
        "o"
      ],
      [
        "h",
        "u"
      ],
      [
        "h",
        "igh"
      ],
      [
        "i",
        "e"
      ],
      [
        "m",
        "all"
      ],
      [
        "r",
        "it"
      ],
      [
        "s",
        "mall"
      ],
      [
        "v",
        "ari"
      ],
      [
        "th",
        "us"
      ],
      [
        "in",
        "it"
      ],
      [
        "in",
        "te"
      ],
      [
        "in",
        "dependent"
      ],
      [
        "re",
        "str"
      ],
      [
        "or",
        "m"
      ],
      [
        "ing",
        "s"
      ],
      [
        "se",
        "e"
      ],
      [
        "se",
        "l"
      ],
      [
        "........",
        "...."
      ],
      [
        "im",
        "age"
      ],
      [
        "im",
        "pl"
      ],
      [
        "ra",
        "w"
      ],
      [
        "str",
        "ate"
      ],
      [
        "ma",
        "de"
      ],
      [
        "ex",
        "pre"
      ],
      [
        "The",
        "se"
      ],
      [
        "qu",
        "al"
      ],
      [
        "po",
        "ss"
      ],
      [
        "ut",
        "ion"
      ],
      [
        "defin",
        "e"
      ],
      [
        "system",
        "s"
      ],
      [
        "ap",
        "p"
      ],
      [
        "ical",
        "ly"
      ],
      [
        "verb",
        "al"
      ],
      [
        "comm",
        "un"
      ],
      [
        "rel",
        "ation"
      ],
      [
        "contain",
        "ed"
      ],
      [
        "que",
        "stions"
      ],
      [
        "linear",
        "ly"
      ],
      [
        "ling",
        "uist"
      ],
      [
        "lar",
        "ge"
      ],
      [
        "SQ",
        "UARE"
      ],
      [
        "ret",
        "urn"
      ],
      [
        "recur",
        "sive"
      ],
      [
        ",",
        "\""
      ],
      [
        "D",
        "RA"
      ],
      [
        "G",
        "O"
      ],
      [
        "S",
        "eman"
      ],
      [
        "U",
        "ni"
      ],
      [
        "c",
        "u"
      ],
      [
        "c",
        "y"
      ],
      [
        "c",
        "ap"
      ],
      [
        "d",
        "u"
      ],
      [
        "e",
        "f"
      ],
      [
        "e",
        "as"
      ],
      [
        "f",
        "our"
      ],
      [
        "i",
        "di"
      ],
      [
        "k",
        "now"
      ],
      [
        "l",
        "ed"
      ],
      [
        "m",
        "es"
      ],
      [
        "n",
        "on"
      ],
      [
        "n",
        "ess"
      ],
      [
        "o",
        "m"
      ],
      [
        "o",
        "re"
      ],
      [
        "p",
        "a"
      ],
      [
        "t",
        "ing"
      ],
      [
        "an",
        "al"
      ],
      [
        "at",
        "ing"
      ],
      [
        "le",
        "f"
      ],
      [
        "ro",
        "duc"
      ],
      [
        "ter",
        "n"
      ],
      [
        "ex",
        "p"
      ],
      [
        "pro",
        "vi"
      ],
      [
        "uct",
        "ion"
      ],
      [
        "qu",
        "es"
      ],
      [
        "di",
        "vi"
      ],
      [
        "ut",
        "e"
      ],
      [
        "comp",
        "ut"
      ],
      [
        "ne",
        "l"
      ],
      [
        "pl",
        "ic"
      ],
      [
        "ill",
        "u"
      ],
      [
        "197",
        "4"
      ],
      [
        "cl",
        "u"
      ],
      [
        "point",
        "s"
      ],
      [
        "requi",
        "red"
      ],
      [
        "ev",
        "o"
      ],
      [
        "cause",
        "s"
      ],
      [
        "exist",
        "ing"
      ],
      [
        "log",
        "y"
      ],
      [
        "prim",
        "itive"
      ],
      [
        "vers",
        "ity"
      ],
      [
        "SH",
        "AP"
      ],
      [
        "pri",
        "ate"
      ],
      [
        "pho",
        "to"
      ],
      [
        "contro",
        "l"
      ],
      [
        "necess",
        "ary"
      ],
      [
        "poss",
        "ible"
      ],
      [
        "DRA",
        "W"
      ],
      [
        "Seman",
        "tic"
      ],
      [
        "Uni",
        "versity"
      ],
      [
        "1",
        "5"
      ],
      [
        "1",
        "8"
      ],
      [
        "2",
        "0"
      ],
      [
        "2",
        "1"
      ],
      [
        "2",
        "2"
      ],
      [
        "2",
        "7"
      ],
      [
        "A",
        "KE"
      ],
      [
        "B",
        "E"
      ],
      [
        "C",
        "ODE"
      ],
      [
        "D",
        "I"
      ],
      [
        "L",
        "S"
      ],
      [
        "M",
        "AKE"
      ],
      [
        "P",
        "P"
      ],
      [
        "T",
        "o"
      ],
      [
        "T",
        "RA"
      ],
      [
        "V",
        "AL"
      ],
      [
        "X",
        "T"
      ],
      [
        "[",
        "+"
      ],
      [
        "]",
        "."
      ],
      [
        "b",
        "it"
      ],
      [
        "c",
        "ase"
      ],
      [
        "d",
        "ual"
      ],
      [
        "g",
        "o"
      ],
      [
        "g",
        "ree"
      ],
      [
        "h",
        "ad"
      ],
      [
        "i",
        "der"
      ],
      [
        "o",
        "g"
      ],
      [
        "p",
        "ow"
      ],
      [
        "u",
        "m"
      ],
      [
        "v",
        "ol"
      ],
      [
        "in",
        "divi"
      ],
      [
        "in",
        "vol"
      ],
      [
        "re",
        "as"
      ],
      [
        "re",
        "mo"
      ],
      [
        "an",
        "ce"
      ],
      [
        "al",
        "though"
      ],
      [
        "ce",
        "ed"
      ],
      [
        "it",
        "ative"
      ],
      [
        "st",
        "ra"
      ],
      [
        "con",
        "struct"
      ],
      [
        "mo",
        "tion"
      ],
      [
        "ex",
        "ec"
      ],
      [
        "RE",
        "N"
      ],
      [
        "ad",
        "v"
      ],
      [
        "ad",
        "ject"
      ],
      [
        "ect",
        "ed"
      ],
      [
        "te",
        "mp"
      ],
      [
        "we",
        "re"
      ],
      [
        "sing",
        "le"
      ],
      [
        "pl",
        "ication"
      ],
      [
        "vi",
        "ew"
      ],
      [
        "allow",
        "ed"
      ],
      [
        "spe",
        "ech"
      ],
      [
        "sc",
        "al"
      ],
      [
        "add",
        "ed"
      ],
      [
        "THE",
        "M"
      ],
      [
        "cl",
        "ar"
      ],
      [
        "cl",
        "ass"
      ],
      [
        "ev",
        "ol"
      ],
      [
        "modif",
        "y"
      ],
      [
        "polygon",
        "s"
      ],
      [
        "loc",
        "ation"
      ],
      [
        "grammar",
        "s"
      ],
      [
        "appro",
        "priate"
      ],
      [
        "Concept",
        "ual"
      ],
      [
        "ys",
        "is"
      ],
      [
        "techni",
        "ques"
      ],
      [
        "suc",
        "cess"
      ],
      [
        "displ",
        "ay"
      ],
      [
        "disc",
        "us"
      ],
      [
        "mit",
        "ted"
      ],
      [
        "ans",
        "w"
      ],
      [
        "GRE",
        "EN"
      ],
      [
        "restr",
        "i"
      ],
      [
        "relation",
        "ship"
      ],
      [
        "lef",
        "t"
      ],
      [
        "LS",
        "ON"
      ],
      [
        "VAL",
        "U"
      ],
      [
        "pow",
        "er"
      ],
      [
        "indivi",
        "dual"
      ],
      [
        "reas",
        "on"
      ],
      [
        "adject",
        "ive"
      ],
      [
        "-",
        "-"
      ],
      [
        "-",
        "/"
      ],
      [
        "1",
        "3"
      ],
      [
        "3",
        "5"
      ],
      [
        "3",
        "6"
      ],
      [
        "4",
        "5"
      ],
      [
        "A",
        "I"
      ],
      [
        "A",
        "R"
      ],
      [
        "A",
        "RC"
      ],
      [
        "F",
        "or"
      ],
      [
        "H",
        "E"
      ],
      [
        "J",
        "o"
      ],
      [
        "M",
        "at"
      ],
      [
        "N",
        "ew"
      ],
      [
        "N",
        "ESS"
      ],
      [
        "R",
        "SI"
      ],
      [
        "S",
        "E"
      ],
      [
        "S",
        "P"
      ],
      [
        "S",
        "p"
      ],
      [
        "T",
        "able"
      ],
      [
        "U",
        "n"
      ],
      [
        "^",
        ","
      ],
      [
        "b",
        "ack"
      ],
      [
        "d",
        "raw"
      ],
      [
        "e",
        "motion"
      ],
      [
        "f",
        "l"
      ],
      [
        "g",
        "r"
      ],
      [
        "g",
        "or"
      ],
      [
        "h",
        "en"
      ],
      [
        "i",
        "le"
      ],
      [
        "i",
        "ved"
      ],
      [
        "k",
        "er"
      ],
      [
        "n",
        "orm"
      ],
      [
        "o",
        "d"
      ],
      [
        "p",
        "at"
      ],
      [
        "u",
        "d"
      ],
      [
        "w",
        "ay"
      ],
      [
        "th",
        "rough"
      ],
      [
        "in",
        "a"
      ],
      [
        "re",
        "cogn"
      ],
      [
        "the",
        "re"
      ],
      [
        "or",
        "tho"
      ],
      [
        "en",
        "ess"
      ],
      [
        "to",
        "ken"
      ],
      [
        "de",
        "ve"
      ],
      [
        "de",
        "mon"
      ],
      [
        "de",
        "gree"
      ],
      [
        "be",
        "ing"
      ],
      [
        "ro",
        "tation"
      ],
      [
        "con",
        "n"
      ],
      [
        "co",
        "ded"
      ],
      [
        "ter",
        "ms"
      ],
      [
        "pro",
        "ble"
      ],
      [
        "ig",
        "n"
      ],
      [
        "ver",
        "y"
      ],
      [
        "ith",
        "m"
      ],
      [
        "ul",
        "l"
      ],
      [
        "lo",
        "p"
      ],
      [
        "iz",
        "e"
      ],
      [
        "ser",
        "tation"
      ],
      [
        "cont",
        "in"
      ],
      [
        "chan",
        "nel"
      ],
      [
        "197",
        "3"
      ],
      [
        "St",
        "ate"
      ],
      [
        "DE",
        "CODE"
      ],
      [
        "contain",
        "s"
      ],
      [
        "fic",
        "ial"
      ],
      [
        "inter",
        "pre"
      ],
      [
        "matri",
        "ces"
      ],
      [
        "por",
        "t"
      ],
      [
        "ind",
        "icated"
      ],
      [
        "pos",
        "ition"
      ],
      [
        "require",
        "s"
      ],
      [
        "Trans",
        "formation"
      ],
      [
        "comple",
        "te"
      ],
      [
        "Structure",
        "s"
      ],
      [
        "RELN",
        "ODE"
      ],
      [
        "MO",
        "VE"
      ],
      [
        "fa",
        "il"
      ],
      [
        "sequ",
        "ence"
      ],
      [
        "follow",
        "ing"
      ],
      [
        "VER",
        "Y"
      ],
      [
        "anal",
        "ysis"
      ],
      [
        "SHAP",
        "E"
      ],
      [
        "photo",
        "graph"
      ],
      [
        "TRA",
        "N"
      ],
      [
        "clar",
        "ative"
      ],
      [
        "answ",
        "er"
      ],
      [
        "restri",
        "ctions"
      ],
      [
        "ARC",
        "H"
      ],
      [
        "Mat",
        "ri"
      ],
      [
        "RSI",
        "B"
      ],
      [
        "Sp",
        "ace"
      ],
      [
        "gor",
        "ithm"
      ],
      [
        "pat",
        "tern"
      ],
      [
        "token",
        "s"
      ],
      [
        "deve",
        "lop"
      ],
      [
        "2",
        "5"
      ],
      [
        "2",
        "6"
      ],
      [
        "3",
        "7"
      ],
      [
        "3",
        "D"
      ],
      [
        "C",
        "U"
      ],
      [
        "C",
        "ar"
      ],
      [
        "E",
        "D"
      ],
      [
        "P",
        "U"
      ],
      [
        "P",
        "h"
      ],
      [
        "P",
        "o"
      ],
      [
        "Q",
        "ue"
      ],
      [
        "R",
        "P"
      ],
      [
        "R",
        "IGHT"
      ],
      [
        "W",
        "hen"
      ],
      [
        "Y",
        "ES"
      ],
      [
        "Z",
        "E"
      ],
      [
        "e",
        "ffect"
      ],
      [
        "h",
        "n"
      ],
      [
        "l",
        "im"
      ],
      [
        "n",
        "ull"
      ],
      [
        "o",
        "ver"
      ],
      [
        "r",
        "ase"
      ],
      [
        "s",
        "ha"
      ],
      [
        "t",
        "ro"
      ],
      [
        "t",
        "ext"
      ],
      [
        "w",
        "ard"
      ],
      [
        "w",
        "rit"
      ],
      [
        "in",
        "s"
      ],
      [
        "in",
        "cor"
      ],
      [
        "re",
        "feren"
      ],
      [
        "an",
        "im"
      ],
      [
        "at",
        "er"
      ],
      [
        "en",
        "e"
      ],
      [
        "it",
        "ies"
      ],
      [
        "ve",
        "s"
      ],
      [
        "le",
        "x"
      ],
      [
        "be",
        "cause"
      ],
      [
        "ent",
        "s"
      ],
      [
        "ch",
        "ing"
      ],
      [
        "su",
        "it"
      ],
      [
        "ma",
        "gn"
      ],
      [
        "ig",
        "ence"
      ],
      [
        "ace",
        "ment"
      ],
      [
        "ab",
        "ly"
      ],
      [
        "fe",
        "rent"
      ],
      [
        "gra",
        "d"
      ],
      [
        "ul",
        "t"
      ],
      [
        "ate",
        "ly"
      ],
      [
        "fin",
        "ition"
      ],
      [
        "model",
        "ing"
      ],
      [
        "EN",
        "S"
      ],
      [
        "ti",
        "ficial"
      ],
      [
        "sub",
        "string"
      ],
      [
        "ac",
        "cept"
      ],
      [
        "bas",
        "ic"
      ],
      [
        "int",
        "roduc"
      ],
      [
        "BO",
        "L"
      ],
      [
        "program",
        "s"
      ],
      [
        "IT",
        "BOL"
      ],
      [
        "dis",
        "sertation"
      ],
      [
        "multi",
        "ple"
      ],
      [
        "he",
        "ight"
      ],
      [
        "vis",
        "ion"
      ],
      [
        "MODIF",
        "I"
      ],
      [
        "gener",
        "ate"
      ],
      [
        "ll",
        "igence"
      ],
      [
        "SI",
        "ZE"
      ],
      [
        "transformation",
        "s"
      ],
      [
        "modif",
        "ied"
      ],
      [
        "bo",
        "x"
      ],
      [
        "fic",
        "i"
      ],
      [
        "RO",
        "U"
      ],
      [
        "**",
        "**"
      ],
      [
        "TE",
        "XT"
      ],
      [
        "addition",
        "al"
      ],
      [
        "De",
        "finition"
      ],
      [
        "network",
        "s"
      ],
      [
        "comple",
        "x"
      ],
      [
        "Ar",
        "ch"
      ],
      [
        "li",
        "ke"
      ],
      [
        "med",
        "i"
      ],
      [
        "hierarch",
        "ical"
      ],
      [
        "SPA",
        "REN"
      ],
      [
        "Win",
        "o"
      ],
      [
        "hu",
        "man"
      ],
      [
        "vari",
        "ous"
      ],
      [
        "expre",
        "ss"
      ],
      [
        "commun",
        "ication"
      ],
      [
        "eas",
        "i"
      ],
      [
        "know",
        "led"
      ],
      [
        "Jo",
        "hn"
      ],
      [
        "SP",
        "ITBOL"
      ],
      [
        "ortho",
        "gon"
      ],
      [
        "TRAN",
        "SPAREN"
      ],
      [
        "Matri",
        "x"
      ],
      [
        "incor",
        "por"
      ],
      [
        "magn",
        "itu"
      ],
      [
        "knowled",
        "ge"
      ],
      [
        "2",
        "4"
      ],
      [
        "A",
        "l"
      ],
      [
        "A",
        "u"
      ],
      [
        "B",
        "RIGHT"
      ],
      [
        "C",
        "H"
      ],
      [
        "C",
        "ase"
      ],
      [
        "F",
        "I"
      ],
      [
        "G",
        "ra"
      ],
      [
        "I",
        "I"
      ],
      [
        "I",
        "ME"
      ],
      [
        "L",
        "an"
      ],
      [
        "L",
        "ex"
      ],
      [
        "N",
        "on"
      ],
      [
        "N",
        "or"
      ],
      [
        "N",
        "ODE"
      ],
      [
        "P",
        "ro"
      ],
      [
        "P",
        "RE"
      ],
      [
        "S",
        "u"
      ],
      [
        "S",
        "ci"
      ],
      [
        "T",
        "IME"
      ],
      [
        "b",
        "u"
      ],
      [
        "c",
        "k"
      ],
      [
        "d",
        "own"
      ],
      [
        "d",
        "uction"
      ],
      [
        "f",
        "ter"
      ],
      [
        "f",
        "ac"
      ],
      [
        "g",
        "er"
      ],
      [
        "i",
        "ce"
      ],
      [
        "k",
        "y"
      ],
      [
        "l",
        "icated"
      ],
      [
        "m",
        "is"
      ],
      [
        "m",
        "ing"
      ],
      [
        "n",
        "a"
      ],
      [
        "n",
        "ing"
      ],
      [
        "t",
        "ran"
      ],
      [
        "u",
        "be"
      ],
      [
        "y",
        "et"
      ],
      [
        "y",
        "ie"
      ],
      [
        "in",
        "st"
      ],
      [
        "re",
        "st"
      ],
      [
        "re",
        "ad"
      ],
      [
        "re",
        "cor"
      ],
      [
        "re",
        "main"
      ],
      [
        "the",
        "ory"
      ],
      [
        "or",
        "k"
      ],
      [
        "or",
        "t"
      ],
      [
        "is",
        "e"
      ],
      [
        "al",
        "gorithm"
      ],
      [
        "it",
        "sel"
      ],
      [
        "st",
        "or"
      ],
      [
        "as",
        "su"
      ],
      [
        "le",
        "s"
      ],
      [
        "le",
        "ar"
      ],
      [
        "le",
        "ss"
      ],
      [
        "mo",
        "ve"
      ],
      [
        "wh",
        "ile"
      ],
      [
        "sp",
        "ect"
      ],
      [
        "form",
        "at"
      ],
      [
        "ex",
        "act"
      ],
      [
        "are",
        "n"
      ],
      [
        "qu",
        "ant"
      ],
      [
        "ur",
        "ther"
      ],
      [
        "di",
        "al"
      ],
      [
        "per",
        "im"
      ],
      [
        "comp",
        "lished"
      ],
      [
        "fin",
        "d"
      ],
      [
        "fin",
        "ite"
      ],
      [
        "te",
        "st"
      ],
      [
        "OD",
        "ES"
      ],
      [
        "ph",
        "ys"
      ],
      [
        "ac",
        "complished"
      ],
      [
        "langu",
        "ages"
      ],
      [
        "AT",
        "N"
      ],
      [
        "ap",
        "ple"
      ],
      [
        "sh",
        "ould"
      ],
      [
        "verb",
        "s"
      ],
      [
        "................................",
        "...."
      ],
      [
        "LO",
        "R"
      ],
      [
        "oper",
        "ation"
      ],
      [
        "noun",
        "s"
      ],
      [
        "modif",
        "ication"
      ],
      [
        "col",
        "le"
      ],
      [
        "conceptualiz",
        "ation"
      ],
      [
        "99",
        "99"
      ],
      [
        "fra",
        "mes"
      ],
      [
        "perform",
        "s"
      ],
      [
        "val",
        "ue"
      ],
      [
        "Structure",
        "d"
      ],
      [
        "CO",
        "LOR"
      ],
      [
        "descri",
        "be"
      ],
      [
        "techni",
        "que"
      ],
      [
        "RELN",
        "ODES"
      ],
      [
        "implement",
        "ation"
      ],
      [
        "coordin",
        "ate"
      ],
      [
        "coordin",
        "ates"
      ],
      [
        "cons",
        "ist"
      ],
      [
        "high",
        "er"
      ],
      [
        "init",
        "i"
      ],
      [
        "inte",
        "rest"
      ],
      [
        "app",
        "ear"
      ],
      [
        "idi",
        "o"
      ],
      [
        "evo",
        "k"
      ],
      [
        "discus",
        "sed"
      ],
      [
        "relationship",
        "s"
      ],
      [
        "proble",
        "m"
      ],
      [
        "contin",
        "u"
      ],
      [
        "interpre",
        "tation"
      ],
      [
        "CU",
        "BE"
      ],
      [
        "Po",
        "lygon"
      ],
      [
        "sha",
        "pe"
      ],
      [
        "writ",
        "ten"
      ],
      [
        "lex",
        "icon"
      ],
      [
        "MODIFI",
        "ERS"
      ],
      [
        "Wino",
        "grad"
      ],
      [
        "easi",
        "ly"
      ],
      [
        "Lex",
        "icon"
      ],
      [
        "Nor",
        "th"
      ],
      [
        "Sci",
        "ence"
      ],
      [
        "yie",
        "ld"
      ],
      [
        "recor",
        "d"
      ],
      [
        "itsel",
        "f"
      ],
      [
        "quant",
        "itative"
      ],
      [
        "phys",
        "ical"
      ],
      [
        "\"",
        ","
      ],
      [
        ",",
        ")"
      ],
      [
        "0",
        "4"
      ],
      [
        "2",
        "9"
      ],
      [
        "3",
        "2"
      ],
      [
        "3",
        "3"
      ],
      [
        "5",
        "1"
      ],
      [
        "6",
        "9"
      ],
      [
        "A",
        "mbigu"
      ],
      [
        "C",
        "R"
      ],
      [
        "C",
        "Y"
      ],
      [
        "C",
        "ON"
      ],
      [
        "C",
        "hap"
      ],
      [
        "C",
        "ube"
      ],
      [
        "F",
        "E"
      ],
      [
        "F",
        "ri"
      ],
      [
        "F",
        "AI"
      ],
      [
        "G",
        "URE"
      ],
      [
        "I",
        "B"
      ],
      [
        "L",
        "IST"
      ],
      [
        "M",
        "N"
      ],
      [
        "N",
        "o"
      ],
      [
        "O",
        "U"
      ],
      [
        "P",
        "r"
      ],
      [
        "S",
        "U"
      ],
      [
        "S",
        "y"
      ],
      [
        "T",
        "ech"
      ],
      [
        "V",
        "er"
      ],
      [
        "V",
        "is"
      ],
      [
        "W",
        "I"
      ],
      [
        "Y",
        "ork"
      ],
      [
        "a",
        "m"
      ],
      [
        "b",
        "or"
      ],
      [
        "b",
        "al"
      ],
      [
        "b",
        "ed"
      ],
      [
        "b",
        "ably"
      ],
      [
        "c",
        "er"
      ],
      [
        "d",
        "ist"
      ],
      [
        "d",
        "ue"
      ],
      [
        "e",
        "qual"
      ],
      [
        "f",
        "igure"
      ],
      [
        "f",
        "urther"
      ],
      [
        "g",
        "ment"
      ],
      [
        "i",
        "re"
      ],
      [
        "i",
        "an"
      ],
      [
        "k",
        "ind"
      ],
      [
        "l",
        "ation"
      ],
      [
        "l",
        "ater"
      ],
      [
        "m",
        "ation"
      ],
      [
        "p",
        "ur"
      ],
      [
        "s",
        "i"
      ],
      [
        "t",
        "re"
      ],
      [
        "t",
        "le"
      ],
      [
        "in",
        "al"
      ],
      [
        "in",
        "clu"
      ],
      [
        "the",
        "ore"
      ],
      [
        "on",
        "to"
      ],
      [
        "at",
        "temp"
      ],
      [
        "is",
        "s"
      ],
      [
        "al",
        "read"
      ],
      [
        "of",
        "ten"
      ],
      [
        "ce",
        "ived"
      ],
      [
        "to",
        "p"
      ],
      [
        "it",
        "ly"
      ],
      [
        "it",
        "eness"
      ],
      [
        "st",
        "ion"
      ],
      [
        "ar",
        "t"
      ],
      [
        "ar",
        "gu"
      ],
      [
        "de",
        "clarative"
      ],
      [
        "as",
        "es"
      ],
      [
        "se",
        "en"
      ],
      [
        "se",
        "ss"
      ],
      [
        "se",
        "em"
      ],
      [
        "se",
        "ction"
      ],
      [
        "........",
        "."
      ],
      [
        "le",
        "ct"
      ],
      [
        "im",
        "port"
      ],
      [
        "ch",
        "ec"
      ],
      [
        "con",
        "d"
      ],
      [
        "con",
        "ver"
      ],
      [
        "ra",
        "ffe"
      ],
      [
        "su",
        "f"
      ],
      [
        "str",
        "ated"
      ],
      [
        "ma",
        "ke"
      ],
      [
        "ex",
        "plic"
      ],
      [
        "pro",
        "du"
      ],
      [
        "ig",
        "inal"
      ],
      [
        "................",
        "........"
      ],
      [
        "................",
        "............"
      ],
      [
        "ag",
        "re"
      ],
      [
        "are",
        "a"
      ],
      [
        "ab",
        "sol"
      ],
      [
        "di",
        "ction"
      ],
      [
        "par",
        "sed"
      ],
      [
        "sy",
        "cho"
      ],
      [
        "In",
        "te"
      ],
      [
        "em",
        "bo"
      ],
      [
        "comp",
        "licated"
      ],
      [
        "structure",
        "d"
      ],
      [
        "gu",
        "age"
      ],
      [
        "ition",
        "ed"
      ],
      [
        "sing",
        "ular"
      ],
      [
        "man",
        "y"
      ],
      [
        "EN",
        "T"
      ],
      [
        "defin",
        "iteness"
      ],
      [
        "ti",
        "v"
      ],
      [
        "sub",
        "ject"
      ],
      [
        "sub",
        "set"
      ],
      [
        "ac",
        "cur"
      ],
      [
        "ol",
        "ina"
      ],
      [
        "TH",
        "AT"
      ],
      [
        "ear",
        "ly"
      ],
      [
        "sh",
        "ow"
      ],
      [
        "lin",
        "ks"
      ],
      [
        "dif",
        "fic"
      ],
      [
        "dif",
        "ferent"
      ],
      [
        "spe",
        "a"
      ],
      [
        "represent",
        "ing"
      ],
      [
        "he",
        "ad"
      ],
      [
        "197",
        "1"
      ],
      [
        "197",
        "2"
      ],
      [
        "197",
        "5"
      ],
      [
        "dep",
        "th"
      ],
      [
        "gener",
        "al"
      ],
      [
        "ever",
        "y"
      ],
      [
        "bo",
        "th"
      ],
      [
        "gi",
        "raffe"
      ],
      [
        "exist",
        "s"
      ],
      [
        "do",
        "es"
      ],
      [
        "LU",
        "MN"
      ],
      [
        "part",
        "ment"
      ],
      [
        "pos",
        "sess"
      ],
      [
        "conceptualiz",
        "ations"
      ],
      [
        "loc",
        "ated"
      ],
      [
        "val",
        "u"
      ],
      [
        "ACTION",
        "S"
      ],
      [
        "Ar",
        "tificial"
      ],
      [
        "CO",
        "LUMN"
      ],
      [
        "cre",
        "ated"
      ],
      [
        "struct",
        "ural"
      ],
      [
        "determin",
        "e"
      ],
      [
        "respon",
        "se"
      ],
      [
        "feren",
        "ce"
      ],
      [
        "displ",
        "acement"
      ],
      [
        "resul",
        "ts"
      ],
      [
        "definition",
        "s"
      ],
      [
        "LOC",
        "ATION"
      ],
      [
        "cons",
        "ider"
      ],
      [
        "command",
        "s"
      ],
      [
        "ROT",
        "ATION"
      ],
      [
        "provi",
        "de"
      ],
      [
        "evol",
        "ution"
      ],
      [
        "success",
        "ful"
      ],
      [
        "VALU",
        "ES"
      ],
      [
        "HE",
        "IGHT"
      ],
      [
        "norm",
        "al"
      ],
      [
        "conn",
        "ected"
      ],
      [
        "Car",
        "olina"
      ],
      [
        "ENS",
        "ION"
      ],
      [
        "introduc",
        "ed"
      ],
      [
        "ROU",
        "GH"
      ],
      [
        "TEXT",
        "URE"
      ],
      [
        "orthogon",
        "al"
      ],
      [
        "BRIGHT",
        "NESS"
      ],
      [
        "FI",
        "GURE"
      ],
      [
        "Lan",
        "guage"
      ],
      [
        "perim",
        "ent"
      ],
      [
        "idio",
        "ms"
      ],
      [
        "04",
        "9999"
      ],
      [
        "Chap",
        "ter"
      ],
      [
        "alread",
        "y"
      ],
      [
        "produ",
        "ce"
      ],
      [
        "absol",
        "ute"
      ],
      [
        "diction",
        "ary"
      ],
      [
        "Inte",
        "lligence"
      ],
      [
        "(",
        "-"
      ],
      [
        "+",
        "-/"
      ],
      [
        ".",
        ","
      ],
      [
        "2",
        "8"
      ],
      [
        "2",
        "b"
      ],
      [
        "3",
        "8"
      ],
      [
        "4",
        "1"
      ],
      [
        "5",
        "5"
      ],
      [
        "7",
        "7"
      ],
      [
        "7",
        "9"
      ],
      [
        "?",
        "\","
      ],
      [
        "A",
        "G"
      ],
      [
        "A",
        "d"
      ],
      [
        "A",
        "t"
      ],
      [
        "A",
        "ll"
      ],
      [
        "B",
        "o"
      ],
      [
        "C",
        "ho"
      ],
      [
        "D",
        "imension"
      ],
      [
        "E",
        "E"
      ],
      [
        "G",
        "E"
      ],
      [
        "G",
        "IST"
      ],
      [
        "M",
        "ass"
      ],
      [
        "N",
        "e"
      ],
      [
        "O",
        "n"
      ],
      [
        "P",
        "icture"
      ],
      [
        "Q",
        "u"
      ],
      [
        "S",
        "o"
      ],
      [
        "S",
        "im"
      ],
      [
        "S",
        "ect"
      ],
      [
        "S",
        "ta"
      ],
      [
        "U",
        "N"
      ],
      [
        "U",
        "S"
      ],
      [
        "V",
        "N"
      ],
      [
        "[",
        "$"
      ],
      [
        "]",
        ","
      ],
      [
        "^",
        "."
      ],
      [
        "a",
        "in"
      ],
      [
        "a",
        "min"
      ],
      [
        "a",
        "ffect"
      ],
      [
        "a",
        "fter"
      ],
      [
        "b",
        "ro"
      ],
      [
        "b",
        "ran"
      ],
      [
        "c",
        "ent"
      ],
      [
        "d",
        "a"
      ],
      [
        "e",
        "l"
      ],
      [
        "e",
        "qu"
      ],
      [
        "f",
        "ers"
      ],
      [
        "f",
        "ore"
      ],
      [
        "g",
        "in"
      ],
      [
        "j",
        "da"
      ],
      [
        "l",
        "and"
      ],
      [
        "l",
        "ast"
      ],
      [
        "l",
        "ational"
      ],
      [
        "l",
        "ack"
      ],
      [
        "m",
        "ic"
      ],
      [
        "m",
        "mer"
      ],
      [
        "p",
        "ages"
      ],
      [
        "t",
        "ure"
      ],
      [
        "t",
        "ri"
      ],
      [
        "u",
        "st"
      ],
      [
        "u",
        "itive"
      ],
      [
        "v",
        "ary"
      ],
      [
        "th",
        "or"
      ],
      [
        "in",
        "de"
      ],
      [
        "in",
        "depend"
      ],
      [
        "in",
        "correct"
      ],
      [
        "re",
        "s"
      ],
      [
        "re",
        "pl"
      ],
      [
        "re",
        "ject"
      ],
      [
        "re",
        "search"
      ],
      [
        "the",
        "mat"
      ],
      [
        "on",
        "s"
      ],
      [
        "an",
        "a"
      ],
      [
        "an",
        "om"
      ],
      [
        "or",
        "iginal"
      ],
      [
        "en",
        "g"
      ],
      [
        "en",
        "coded"
      ],
      [
        "er",
        "o"
      ],
      [
        "al",
        "ong"
      ],
      [
        "to",
        "po"
      ],
      [
        "it",
        "ed"
      ],
      [
        "st",
        "e"
      ],
      [
        "st",
        "on"
      ],
      [
        "ar",
        "is"
      ],
      [
        "de",
        "c"
      ],
      [
        "se",
        "ver"
      ],
      [
        "be",
        "st"
      ],
      [
        "be",
        "com"
      ],
      [
        "be",
        "gin"
      ],
      [
        "ent",
        "ire"
      ],
      [
        "for",
        "ward"
      ],
      [
        "im",
        "per"
      ],
      [
        "co",
        "mb"
      ],
      [
        "mo",
        "tiv"
      ],
      [
        "wh",
        "at"
      ],
      [
        "sp",
        "aren"
      ],
      [
        "str",
        "uc"
      ],
      [
        "ma",
        "ch"
      ],
      [
        "ex",
        "hi"
      ],
      [
        "ex",
        "amin"
      ],
      [
        "pro",
        "duc"
      ],
      [
        "il",
        "ities"
      ],
      [
        "The",
        "re"
      ],
      [
        "The",
        "ory"
      ],
      [
        "ab",
        "ilities"
      ],
      [
        "RE",
        "GIST"
      ],
      [
        "un",
        "t"
      ],
      [
        "par",
        "se"
      ],
      [
        "In",
        "tro"
      ],
      [
        "em",
        "ent"
      ],
      [
        "space",
        "s"
      ],
      [
        "ha",
        "vi"
      ],
      [
        "ha",
        "mmer"
      ],
      [
        "ne",
        "ed"
      ],
      [
        "ph",
        "one"
      ],
      [
        "ph",
        "rase"
      ],
      [
        "red",
        "ness"
      ],
      [
        "trans",
        "mitted"
      ],
      [
        "use",
        "s"
      ],
      [
        "LE",
        "TE"
      ],
      [
        "min",
        "d"
      ],
      [
        "ear",
        "li"
      ],
      [
        "lin",
        "es"
      ],
      [
        "mat",
        "ching"
      ],
      [
        "PA",
        "R"
      ],
      [
        "end",
        "ing"
      ],
      [
        "out",
        "put"
      ],
      [
        "CIRCLE",
        "S"
      ],
      [
        "sc",
        "an"
      ],
      [
        "add",
        "ing"
      ],
      [
        "................................",
        "................"
      ],
      [
        "................................",
        "............"
      ],
      [
        "................................",
        "........."
      ],
      [
        "THE",
        "RE"
      ],
      [
        "ext",
        "ension"
      ],
      [
[...]
